{
  "version": "1.0",
  "truncation": null,
  "padding": null,
  "added_tokens": [
    {
      "id": 0,
      "content": "[UNK]",
      "single_word": false,
      "lstrip": false,
      "rstrip": false,
      "normalized": false,
      "special": true
    },
    {
      "id": 1,
      "content": "[PAD]",
      "single_word": false,
      "lstrip": false,
      "rstrip": false,
      "normalized": false,
      "special": true
    },
    {
      "id": 2,
      "content": "[CLS]",
      "single_word": false,
      "lstrip": false,
      "rstrip": false,
      "normalized": false,
      "special": true
    },
    {
      "id": 3,
      "content": "[SEP]",
      "single_word": false,
      "lstrip": false,
      "rstrip": false,
      "normalized": false,
      "special": true
    },
    {
      "id": 4,
      "content": "[MASK]",
      "single_word": false,
      "lstrip": false,
      "rstrip": false,
      "normalized": false,
      "special": true
    }
  ],
  "normalizer": null,
  "pre_tokenizer": {
    "type": "Whitespace"
  },
  "post_processor": null,
  "decoder": null,
  "model": {
    "type": "BPE",
    "dropout": null,
    "unk_token": "[UNK]",
    "continuing_subword_prefix": null,
    "end_of_word_suffix": null,
    "fuse_unk": false,
    "byte_fallback": false,
    "ignore_merges": false,
    "vocab": {
      "[UNK]": 0,
      "[PAD]": 1,
      "[CLS]": 2,
      "[SEP]": 3,
      "[MASK]": 4,
      "a": 5,
      "b": 6,
      "c": 7,
      "d": 8,
      "e": 9,
      "f": 10,
      "g": 11,
      "h": 12,
      "i": 13,
      "j": 14,
      "k": 15,
      "l": 16,
      "m": 17,
      "n": 18,
      "o": 19,
      "p": 20,
      "q": 21,
      "r": 22,
      "s": 23,
      "t": 24,
      "u": 25,
      "v": 26,
      "w": 27,
      "x": 28,
      "y": 29,
      "z": 30,
      "th": 31,
      "in": 32,
      "er": 33,
      "ti": 34,
      "en": 35,
      "on": 36,
      "an": 37,
      "di": 38,
      "al": 39,
      "or": 40,
      "es": 41,
      "ro": 42,
      "the": 43,
      "ed": 44,
      "at": 45,
      "and": 46,
      "ing": 47,
      "ar": 48,
      "ne": 49,
      "it": 50,
      "ent": 51,
      "as": 52,
      "tion": 53,
      "div": 54,
      "uro": 55,
      "neuro": 56,
      "ers": 57,
      "of": 58,
      "to": 59,
      "le": 60,
      "re": 61,
      "ity": 62,
      "neurodiv": 63,
      "st": 64,
      "ve": 65,
      "ch": 66,
      "au": 67,
      "so": 68,
      "ic": 69,
      "for": 70,
      "me": 71,
      "is": 72,
      "tic": 73,
      "be": 74,
      "tis": 75,
      "autis": 76,
      "ad": 77,
      "that": 78,
      "ac": 79,
      "pe": 80,
      "ation": 81,
      "un": 82,
      "se": 83,
      "su": 84,
      "ci": 85,
      "con": 86,
      "id": 87,
      "mo": 88,
      "co": 89,
      "ersity": 90,
      "ment": 91,
      "erg": 92,
      "ly": 93,
      "op": 94,
      "neurodiverg": 95,
      "ter": 96,
      "il": 97,
      "ab": 98,
      "autistic": 99,
      "de": 100,
      "pp": 101,
      "neurodiversity": 102,
      "wh": 103,
      "ce": 104,
      "ther": 105,
      "are": 106,
      "neurodivergent": 107,
      "mp": 108,
      "soci": 109,
      "us": 110,
      "dis": 111,
      "wi": 112,
      "no": 113,
      "ud": 114,
      "with": 115,
      "ha": 116,
      "res": 117,
      "ul": 118,
      "ff": 119,
      "peop": 120,
      "people": 121,
      "ual": 122,
      "ort": 123,
      "ra": 124,
      "si": 125,
      "ical": 126,
      "social": 127,
      "vi": 128,
      "inter": 129,
      "medi": 130,
      "tions": 131,
      "com": 132,
      "ig": 133,
      "li": 134,
      "oc": 135,
      "ty": 136,
      "ces": 137,
      "ex": 138,
      "some": 139,
      "ear": 140,
      "lo": 141,
      "indiv": 142,
      "stud": 143,
      "form": 144,
      "und": 145,
      "idual": 146,
      "individual": 147,
      "ir": 148,
      "ma": 149,
      "ut": 150,
      "ents": 151,
      "adv": 152,
      "supp": 153,
      "he": 154,
      "ur": 155,
      "wor": 156,
      "abil": 157,
      "cl": 158,
      "ated": 159,
      "have": 160,
      "pro": 161,
      "move": 162,
      "not": 163,
      "support": 164,
      "diff": 165,
      "emp": 166,
      "individuals": 167,
      "app": 168,
      "uc": 169,
      "tive": 170,
      "eng": 171,
      "all": 172,
      "autism": 173,
      "students": 174,
      "who": 175,
      "movement": 176,
      "has": 177,
      "iz": 178,
      "per": 179,
      "ts": 180,
      "ate": 181,
      "such": 182,
      "disabil": 183,
      "igh": 184,
      "advoc": 185,
      "work": 186,
      "man": 187,
      "sh": 188,
      "ag": 189,
      "ach": 190,
      "ences": 191,
      "comm": 192,
      "by": 193,
      "par": 194,
      "ri": 195,
      "ted": 196,
      "ven": 197,
      "sel": 198,
      "can": 199,
      "fro": 200,
      "ps": 201,
      "differ": 202,
      "from": 203,
      "pl": 204,
      "pers": 205,
      "we": 206,
      "ence": 207,
      "ord": 208,
      "interven": 209,
      "medic": 210,
      "commun": 211,
      "other": 212,
      "po": 213,
      "ten": 214,
      "ver": 215,
      "incl": 216,
      "them": 217,
      "their": 218,
      "educ": 219,
      "mental": 220,
      "media": 221,
      "log": 222,
      "ew": 223,
      "ke": 224,
      "alth": 225,
      "ore": 226,
      "str": 227,
      "resear": 228,
      "typ": 229,
      "disability": 230,
      "medical": 231,
      "research": 232,
      "ath": 233,
      "cre": 234,
      "do": 235,
      "gro": 236,
      "more": 237,
      "ess": 238,
      "vel": 239,
      "view": 240,
      "appro": 241,
      "ay": 242,
      "fin": 243,
      "fic": 244,
      "also": 245,
      "ates": 246,
      "term": 247,
      "cep": 248,
      "health": 249,
      "person": 250,
      "ap": 251,
      "em": 252,
      "high": 253,
      "te": 254,
      "ere": 255,
      "need": 256,
      "rel": 257,
      "cont": 258,
      "whi": 259,
      "there": 260,
      "typical": 261,
      "am": 262,
      "care": 263,
      "fo": 264,
      "io": 265,
      "out": 266,
      "ties": 267,
      "been": 268,
      "disord": 269,
      "uld": 270,
      "unders": 271,
      "may": 272,
      "education": 273,
      "approach": 274,
      "higher": 275,
      "ct": 276,
      "ll": 277,
      "non": 278,
      "tand": 279,
      "ub": 280,
      "thes": 281,
      "ating": 282,
      "arg": 283,
      "beha": 284,
      "ations": 285,
      "devel": 286,
      "vior": 287,
      "sho": 288,
      "interventions": 289,
      "understand": 290,
      "behavior": 291,
      "develop": 292,
      "ain": 293,
      "cau": 294,
      "ities": 295,
      "sti": 296,
      "ys": 297,
      "ong": 298,
      "they": 299,
      "chall": 300,
      "sion": 301,
      "like": 302,
      "empath": 303,
      "community": 304,
      "researchers": 305,
      "found": 306,
      "challeng": 307,
      "ction": 308,
      "ist": 309,
      "imp": 310,
      "led": 311,
      "pre": 312,
      "pres": 313,
      "qu": 314,
      "spe": 315,
      "ves": 316,
      "enti": 317,
      "one": 318,
      "dition": 319,
      "als": 320,
      "ally": 321,
      "ory": 322,
      "neurotypical": 323,
      "ack": 324,
      "mode": 325,
      "able": 326,
      "exper": 327,
      "hel": 328,
      "cept": 329,
      "these": 330,
      "cause": 331,
      "model": 332,
      "cent": 333,
      "des": 334,
      "sy": 335,
      "ug": 336,
      "ving": 337,
      "its": 338,
      "ased": 339,
      "because": 340,
      "ide": 341,
      "forms": 342,
      "advocates": 343,
      "self": 344,
      "differences": 345,
      "logical": 346,
      "grou": 347,
      "experi": 348,
      "help": 349,
      "aff": 350,
      "but": 351,
      "based": 352,
      "ety": 353,
      "gn": 354,
      "ol": 355,
      "tra": 356,
      "was": 357,
      "xi": 358,
      "ant": 359,
      "ance": 360,
      "being": 361,
      "cogn": 362,
      "used": 363,
      "ign": 364,
      "many": 365,
      "includ": 366,
      "find": 367,
      "needs": 368,
      "disorder": 369,
      "argu": 370,
      "understanding": 371,
      "challenges": 372,
      "cri": 373,
      "dys": 374,
      "fe": 375,
      "fer": 376,
      "gm": 377,
      "ges": 378,
      "king": 379,
      "mb": 380,
      "om": 381,
      "port": 382,
      "sid": 383,
      "tho": 384,
      "ditions": 385,
      "consid": 386,
      "ild": 387,
      "defic": 388,
      "ength": 389,
      "age": 390,
      "well": 391,
      "strength": 392,
      "which": 393,
      "ious": 394,
      "nonautistic": 395,
      "ugh": 396,
      "cogni": 397,
      "adi": 398,
      "cer": 399,
      "fun": 400,
      "ies": 401,
      "ive": 402,
      "jo": 403,
      "lin": 404,
      "ms": 405,
      "mil": 406,
      "over": 407,
      "pub": 408,
      "sing": 409,
      "use": 410,
      "var": 411,
      "way": 412,
      "were": 413,
      "this": 414,
      "incre": 415,
      "end": 416,
      "another": 417,
      "ard": 418,
      "ary": 419,
      "icul": 420,
      "addition": 421,
      "conditions": 422,
      "ments": 423,
      "about": 424,
      "users": 425,
      "paradi": 426,
      "approaches": 427,
      "including": 428,
      "function": 429,
      "publ": 430,
      "paradigm": 431,
      "amp": 432,
      "bo": 433,
      "ble": 434,
      "ec": 435,
      "foc": 436,
      "ge": 437,
      "go": 438,
      "ion": 439,
      "lack": 440,
      "pon": 441,
      "tr": 442,
      "ton": 443,
      "tre": 444,
      "tain": 445,
      "vers": 446,
      "vity": 447,
      "wn": 448,
      "wo": 449,
      "year": 450,
      "tim": 451,
      "ase": 452,
      "diversity": 453,
      "lear": 454,
      "ish": 455,
      "bet": 456,
      "ace": 457,
      "acti": 458,
      "uni": 459,
      "therap": 460,
      "ically": 461,
      "early": 462,
      "study": 463,
      "difficul": 464,
      "ize": 465,
      "selves": 466,
      "plat": 467,
      "tention": 468,
      "themselves": 469,
      "healthcare": 470,
      "emic": 471,
      "related": 472,
      "should": 473,
      "developmental": 474,
      "empathy": 475,
      "experiences": 476,
      "consider": 477,
      "deficit": 478,
      "strengths": 479,
      "cur": 480,
      "el": 481,
      "eff": 482,
      "fes": 483,
      "ful": 484,
      "gra": 485,
      "gges": 486,
      "ho": 487,
      "im": 488,
      "ips": 489,
      "min": 490,
      "ning": 491,
      "pr": 492,
      "righ": 493,
      "sa": 494,
      "ser": 495,
      "sci": 496,
      "ting": 497,
      "vid": 498,
      "ye": 499,
      "thin": 500,
      "inform": 501,
      "theory": 502,
      "attention": 503,
      "artic": 504,
      "ass": 505,
      "associ": 506,
      "assi": 507,
      "often": 508,
      "reg": 509,
      "recent": 510,
      "cho": 511,
      "child": 512,
      "ication": 513,
      "ademic": 514,
      "accept": 515,
      "academic": 516,
      "sugges": 517,
      "mod": 518,
      "most": 519,
      "neurodivergence": 520,
      "dep": 521,
      "where": 522,
      "low": 523,
      "profes": 524,
      "disabilities": 525,
      "ships": 526,
      "psy": 527,
      "intervention": 528,
      "while": 529,
      "among": 530,
      "behaviors": 531,
      "behavioral": 532,
      "syst": 533,
      "groups": 534,
      "those": 535,
      "various": 536,
      "suggested": 537,
      "profession": 538,
      "bra": 539,
      "bio": 540,
      "ced": 541,
      "ef": 542,
      "fra": 543,
      "fur": 544,
      "gma": 545,
      "hu": 546,
      "ks": 547,
      "les": 548,
      "ns": 549,
      "nor": 550,
      "ness": 551,
      "sit": 552,
      "ved": 553,
      "than": 554,
      "thro": 555,
      "ality": 556,
      "ors": 557,
      "att": 558,
      "ings": 559,
      "net": 560,
      "neurological": 561,
      "lexi": 562,
      "review": 563,
      "report": 564,
      "sts": 565,
      "auton": 566,
      "memb": 567,
      "ism": 568,
      "act": 569,
      "acy": 570,
      "accom": 571,
      "ationships": 572,
      "conne": 573,
      "identi": 574,
      "comp": 575,
      "ill": 576,
      "abled": 577,
      "when": 578,
      "society": 579,
      "disabled": 580,
      "within": 581,
      "rather": 582,
      "simil": 583,
      "cess": 584,
      "ized": 585,
      "advocate": 586,
      "difference": 587,
      "inclus": 588,
      "relationships": 589,
      "speci": 590,
      "design": 591,
      "traits": 592,
      "omy": 593,
      "increase": 594,
      "goals": 595,
      "times": 596,
      "ished": 597,
      "platforms": 598,
      "rights": 599,
      "associated": 600,
      "depend": 601,
      "brain": 602,
      "further": 603,
      "through": 604,
      "autonomy": 605,
      "members": 606,
      "accommod": 607,
      "similar": 608,
      "aw": 609,
      "ape": 610,
      "ative": 611,
      "aim": 612,
      "bi": 613,
      "bin": 614,
      "ben": 615,
      "cul": 616,
      "duc": 617,
      "fl": 618,
      "fy": 619,
      "hy": 620,
      "har": 621,
      "ker": 622,
      "lle": 623,
      "ming": 624,
      "ren": 625,
      "ris": 626,
      "sen": 627,
      "tu": 628,
      "udi": 629,
      "ure": 630,
      "utic": 631,
      "wal": 632,
      "indi": 633,
      "inte": 634,
      "insti": 635,
      "eness": 636,
      "onlin": 637,
      "allow": 638,
      "org": 639,
      "est": 640,
      "role": 641,
      "areness": 642,
      "new": 643,
      "ree": 644,
      "studi": 645,
      "ick": 646,
      "ices": 647,
      "mework": 648,
      "add": 649,
      "adap": 650,
      "ational": 651,
      "separ": 652,
      "sever": 653,
      "conform": 654,
      "concept": 655,
      "concer": 656,
      "defin": 657,
      "now": 658,
      "expres": 659,
      "examp": 660,
      "sometimes": 661,
      "irming": 662,
      "matic": 663,
      "progra": 664,
      "emplo": 665,
      "emphas": 666,
      "peracti": 667,
      "working": 668,
      "workpl": 669,
      "different": 670,
      "ween": 671,
      "communication": 672,
      "created": 673,
      "doub": 674,
      "terms": 675,
      "personality": 676,
      "contro": 677,
      "disorders": 678,
      "stigma": 679,
      "que": 680,
      "entific": 681,
      "descri": 682,
      "group": 683,
      "affirming": 684,
      "argues": 685,
      "critic": 686,
      "dyslexi": 687,
      "cognition": 688,
      "cognitive": 689,
      "published": 690,
      "both": 691,
      "focus": 692,
      "would": 693,
      "between": 694,
      "effec": 695,
      "serv": 696,
      "scientific": 697,
      "information": 698,
      "professionals": 699,
      "framework": 700,
      "human": 701,
      "attemp": 702,
      "identify": 703,
      "awareness": 704,
      "apeutic": 705,
      "hyperacti": 706,
      "online": 707,
      "example": 708,
      "programs": 709,
      "workplace": 710,
      "double": 711,
      "dyslexia": 712,
      "hyperactivity": 713,
      "amo": 714,
      "bl": 715,
      "br": 716,
      "bu": 717,
      "bro": 718,
      "bil": 719,
      "ds": 720,
      "dur": 721,
      "day": 722,
      "et": 723,
      "ematic": 724,
      "fi": 725,
      "fically": 726,
      "ging": 727,
      "hd": 728,
      "ia": 729,
      "ie": 730,
      "ian": 731,
      "ial": 732,
      "ju": 733,
      "mal": 734,
      "mas": 735,
      "mul": 736,
      "national": 737,
      "ob": 738,
      "od": 739,
      "olog": 740,
      "ological": 741,
      "ple": 742,
      "put": 743,
      "pri": 744,
      "path": 745,
      "red": 746,
      "spre": 747,
      "tur": 748,
      "ume": 749,
      "vide": 750,
      "wer": 751,
      "int": 752,
      "into": 753,
      "independ": 754,
      "titive": 755,
      "tiple": 756,
      "anal": 757,
      "aniz": 758,
      "anxi": 759,
      "aring": 760,
      "level": 761,
      "repe": 762,
      "remo": 763,
      "star": 764,
      "force": 765,
      "adhd": 766,
      "pec": 767,
      "seen": 768,
      "colle": 769,
      "determ": 770,
      "what": 771,
      "cei": 772,
      "therapeutic": 773,
      "using": 774,
      "ress": 775,
      "respon": 776,
      "ulation": 777,
      "interes": 778,
      "interac": 779,
      "combin": 780,
      "lied": 781,
      "type": 782,
      "exist": 783,
      "main": 784,
      "ability": 785,
      "clin": 786,
      "applied": 787,
      "ateg": 788,
      "advocacy": 789,
      "aging": 790,
      "play": 791,
      "wever": 792,
      "posi": 793,
      "power": 794,
      "grow": 795,
      "career": 796,
      "arge": 797,
      "show": 798,
      "empathize": 799,
      "ques": 800,
      "findings": 801,
      "agement": 802,
      "certain": 803,
      "job": 804,
      "functioning": 805,
      "ponents": 806,
      "treat": 807,
      "years": 808,
      "unique": 809,
      "therapy": 810,
      "difficult": 811,
      "considered": 812,
      "however": 813,
      "yees": 814,
      "thinking": 815,
      "articles": 816,
      "assess": 817,
      "regard": 818,
      "children": 819,
      "acceptance": 820,
      "systematic": 821,
      "network": 822,
      "specifically": 823,
      "accommodations": 824,
      "similarly": 825,
      "harm": 826,
      "walker": 827,
      "indic": 828,
      "organiz": 829,
      "studies": 830,
      "adaptive": 831,
      "concerns": 832,
      "nowled": 833,
      "employees": 834,
      "effects": 835,
      "services": 836,
      "blume": 837,
      "during": 838,
      "multiple": 839,
      "spread": 840,
      "independent": 841,
      "anxiety": 842,
      "repetitive": 843,
      "determin": 844,
      "ak": 845,
      "ati": 846,
      "ame": 847,
      "ail": 848,
      "air": 849,
      "aign": 850,
      "ber": 851,
      "bed": 852,
      "cor": 853,
      "call": 854,
      "cord": 855,
      "camp": 856,
      "ccess": 857,
      "dy": 858,
      "emo": 859,
      "each": 860,
      "ect": 861,
      "evid": 862,
      "fund": 863,
      "fir": 864,
      "face": 865,
      "gr": 866,
      "gu": 867,
      "gen": 868,
      "gre": 869,
      "gated": 870,
      "gain": 871,
      "her": 872,
      "jud": 873,
      "la": 874,
      "long": 875,
      "large": 876,
      "my": 877,
      "mis": 878,
      "mary": 879,
      "ners": 880,
      "nick": 881,
      "oth": 882,
      "ph": 883,
      "pat": 884,
      "pac": 885,
      "pop": 886,
      "pus": 887,
      "qual": 888,
      "ron": 889,
      "ran": 890,
      "ses": 891,
      "sch": 892,
      "spac": 893,
      "two": 894,
      "um": 895,
      "ude": 896,
      "val": 897,
      "vation": 898,
      "thing": 899,
      "inn": 900,
      "inv": 901,
      "inves": 902,
      "erally": 903,
      "tigated": 904,
      "entic": 905,
      "envi": 906,
      "enced": 907,
      "any": 908,
      "alist": 909,
      "ari": 910,
      "ared": 911,
      "entation": 912,
      "ash": 913,
      "ast": 914,
      "tional": 915,
      "neurodevelopmental": 916,
      "neurocognitive": 917,
      "lead": 918,
      "remove": 919,
      "staff": 920,
      "chan": 921,
      "chno": 922,
      "auth": 923,
      "fort": 924,
      "istic": 925,
      "beg": 926,
      "acces": 927,
      "set": 928,
      "success": 929,
      "concep": 930,
      "confer": 931,
      "coun": 932,
      "could": 933,
      "depres": 934,
      "neurodiversityaffirming": 935,
      "disc": 936,
      "wik": 937,
      "ressing": 938,
      "ortant": 939,
      "rais": 940,
      "sible": 941,
      "sibil": 942,
      "vists": 943,
      "international": 944,
      "comes": 945,
      "living": 946,
      "life": 947,
      "ext": 948,
      "ute": 949,
      "advant": 950,
      "ural": 951,
      "abilities": 952,
      "proble": 953,
      "provid": 954,
      "proponents": 955,
      "izing": 956,
      "ization": 957,
      "perform": 958,
      "advocated": 959,
      "again": 960,
      "achie": 961,
      "part": 962,
      "partic": 963,
      "perspec": 964,
      "point": 965,
      "tend": 966,
      "struc": 967,
      "types": 968,
      "appropri": 969,
      "ems": 970,
      "techno": 971,
      "needing": 972,
      "contact": 973,
      "outcomes": 974,
      "shown": 975,
      "developed": 976,
      "still": 977,
      "important": 978,
      "presentation": 979,
      "spea": 980,
      "acknowled": 981,
      "center": 982,
      "feel": 983,
      "public": 984,
      "learning": 985,
      "learners": 986,
      "better": 987,
      "activists": 988,
      "curr": 989,
      "how": 990,
      "pride": 991,
      "same": 992,
      "article": 993,
      "assist": 994,
      "psych": 995,
      "psycho": 996,
      "biomedical": 997,
      "efit": 998,
      "normal": 999,
      "nesses": 1000,
      "situ": 1001,
      "sites": 1002,
      "reported": 1003,
      "connect": 1004,
      "inclusive": 1005,
      "inclusion": 1006,
      "benefit": 1007,
      "risks": 1008,
      "integr": 1009,
      "institu": 1010,
      "several": 1011,
      "controvers": 1012,
      "described": 1013,
      "build": 1014,
      "broad": 1015,
      "just": 1016,
      "masking": 1017,
      "video": 1018,
      "started": 1019,
      "ceived": 1020,
      "combination": 1021,
      "clinical": 1022,
      "showed": 1023,
      "regarding": 1024,
      "indicated": 1025,
      "organizations": 1026,
      "campaign": 1027,
      "emotional": 1028,
      "evidence": 1029,
      "generally": 1030,
      "others": 1031,
      "push": 1032,
      "ronment": 1033,
      "spaces": 1034,
      "investigated": 1035,
      "environment": 1036,
      "depression": 1037,
      "problem": 1038,
      "against": 1039,
      "appropriate": 1040,
      "technolog": 1041,
      "av": 1042,
      "amental": 1043,
      "bar": 1044,
      "bis": 1045,
      "blog": 1046,
      "back": 1047,
      "cu": 1048,
      "cing": 1049,
      "cis": 1050,
      "cted": 1051,
      "clear": 1052,
      "camo": 1053,
      "categ": 1054,
      "der": 1055,
      "dam": 1056,
      "ech": 1057,
      "eman": 1058,
      "efic": 1059,
      "fle": 1060,
      "fall": 1061,
      "fam": 1062,
      "fact": 1063,
      "free": 1064,
      "fash": 1065,
      "gi": 1066,
      "gle": 1067,
      "gative": 1068,
      "hon": 1069,
      "had": 1070,
      "hir": 1071,
      "hist": 1072,
      "ix": 1073,
      "iat": 1074,
      "ire": 1075,
      "jur": 1076,
      "ked": 1077,
      "kill": 1078,
      "ld": 1079,
      "ler": 1080,
      "lan": 1081,
      "lic": 1082,
      "less": 1083,
      "llow": 1084,
      "men": 1085,
      "mat": 1086,
      "mit": 1087,
      "mad": 1088,
      "mmary": 1089,
      "mix": 1090,
      "nd": 1091,
      "nat": 1092,
      "nach": 1093,
      "our": 1094,
      "ough": 1095,
      "pi": 1096,
      "pan": 1097,
      "por": 1098,
      "pand": 1099,
      "pical": 1100,
      "pur": 1101,
      "pure": 1102,
      "pharm": 1103,
      "pati": 1104,
      "rate": 1105,
      "reduc": 1106,
      "rum": 1107,
      "rast": 1108,
      "ss": 1109,
      "sed": 1110,
      "sis": 1111,
      "smo": 1112,
      "she": 1113,
      "sincl": 1114,
      "sory": 1115,
      "sically": 1116,
      "scho": 1117,
      "skill": 1118,
      "tes": 1119,
      "uth": 1120,
      "ures": 1121,
      "umb": 1122,
      "ufl": 1123,
      "vas": 1124,
      "versity": 1125,
      "vant": 1126,
      "wr": 1127,
      "ward": 1128,
      "will": 1129,
      "ypical": 1130,
      "thus": 1131,
      "ine": 1132,
      "inu": 1133,
      "inst": 1134,
      "inci": 1135,
      "inno": 1136,
      "intr": 1137,
      "incor": 1138,
      "inher": 1139,
      "insically": 1140,
      "tit": 1141,
      "tiz": 1142,
      "time": 1143,
      "tially": 1144,
      "tivity": 1145,
      "dist": 1146,
      "diag": 1147,
      "espe": 1148,
      "rove": 1149,
      "room": 1150,
      "rober": 1151,
      "ross": 1152,
      "atypical": 1153,
      "aris": 1154,
      "necess": 1155,
      "neeman": 1156,
      "negative": 1157,
      "ite": 1158,
      "asing": 1159,
      "neurosci": 1160,
      "neuroconform": 1161,
      "offer": 1162,
      "too": 1163,
      "tool": 1164,
      "toms": 1165,
      "toler": 1166,
      "toward": 1167,
      "lement": 1168,
      "levant": 1169,
      "read": 1170,
      "rece": 1171,
      "reforms": 1172,
      "refer": 1173,
      "recognition": 1174,
      "representation": 1175,
      "relevant": 1176,
      "stan": 1177,
      "stress": 1178,
      "vey": 1179,
      "som": 1180,
      "ics": 1181,
      "ict": 1182,
      "icacy": 1183,
      "ician": 1184,
      "fore": 1185,
      "issu": 1186,
      "isory": 1187,
      "tical": 1188,
      "bel": 1189,
      "adop": 1190,
      "adul": 1191,
      "adjust": 1192,
      "acological": 1193,
      "accord": 1194,
      "across": 1195,
      "peer": 1196,
      "pect": 1197,
      "unt": 1198,
      "uninteres": 1199,
      "see": 1200,
      "sue": 1201,
      "sur": 1202,
      "summary": 1203,
      "cies": 1204,
      "cially": 1205,
      "consi": 1206,
      "condition": 1207,
      "convers": 1208,
      "conduc": 1209,
      "construc": 1210,
      "conceived": 1211,
      "iding": 1212,
      "mour": 1213,
      "coord": 1214,
      "lying": 1215,
      "neurodivergences": 1216,
      "tern": 1217,
      "abl": 1218,
      "abuse": 1219,
      "autistics": 1220,
      "white": 1221,
      "areas": 1222,
      "mptoms": 1223,
      "societ": 1224,
      "ussion": 1225,
      "disco": 1226,
      "disadvant": 1227,
      "notions": 1228,
      "nosis": 1229,
      "happ": 1230,
      "having": 1231,
      "resour": 1232,
      "ular": 1233,
      "ulsi": 1234,
      "ually": 1235,
      "socially": 1236,
      "socialcommunication": 1237,
      "interview": 1238,
      "interpre": 1239,
      "comfort": 1240,
      "list": 1241,
      "limin": 1242,
      "limit": 1243,
      "excl": 1244,
      "something": 1245,
      "loo": 1246,
      "forming": 1247,
      "formation": 1248,
      "make": 1249,
      "advance": 1250,
      "advisory": 1251,
      "worsen": 1252,
      "world": 1253,
      "class": 1254,
      "classi": 1255,
      "promo": 1256,
      "produc": 1257,
      "notes": 1258,
      "supports": 1259,
      "supported": 1260,
      "engagement": 1261,
      "movements": 1262,
      "percep": 1263,
      "pervas": 1264,
      "ight": 1265,
      "advocating": 1266,
      "workforce": 1267,
      "management": 1268,
      "agree": 1269,
      "common": 1270,
      "partially": 1271,
      "riers": 1272,
      "ribut": 1273,
      "seling": 1274,
      "ples": 1275,
      "weak": 1276,
      "medicine": 1277,
      "post": 1278,
      "include": 1279,
      "educate": 1280,
      "key": 1281,
      "although": 1282,
      "strong": 1283,
      "strug": 1284,
      "strateg": 1285,
      "does": 1286,
      "doing": 1287,
      "down": 1288,
      "ground": 1289,
      "views": 1290,
      "viewed": 1291,
      "viewwhere": 1292,
      "appe": 1293,
      "emerg": 1294,
      "context": 1295,
      "contrast": 1296,
      "continu": 1297,
      "therefore": 1298,
      "ctrum": 1299,
      "nondisabled": 1300,
      "development": 1301,
      "ysis": 1302,
      "ysician": 1303,
      "likely": 1304,
      "empathizing": 1305,
      "foundation": 1306,
      "challenge": 1307,
      "ists": 1308,
      "improve": 1309,
      "implement": 1310,
      "prefer": 1311,
      "speech": 1312,
      "spectrum": 1313,
      "symb": 1314,
      "symptoms": 1315,
      "idea": 1316,
      "selfidentify": 1317,
      "experience": 1318,
      "experienced": 1319,
      "helping": 1320,
      "affect": 1321,
      "ols": 1322,
      "tradition": 1323,
      "finding": 1324,
      "argue": 1325,
      "arguing": 1326,
      "portsmo": 1327,
      "though": 1328,
      "considers": 1329,
      "deficits": 1330,
      "wellbeing": 1331,
      "joh": 1332,
      "linked": 1333,
      "milton": 1334,
      "overloo": 1335,
      "singer": 1336,
      "vari": 1337,
      "ways": 1338,
      "increasing": 1339,
      "additionally": 1340,
      "body": 1341,
      "focused": 1342,
      "tran": 1343,
      "treated": 1344,
      "treating": 1345,
      "taining": 1346,
      "univers": 1347,
      "therapies": 1348,
      "therapists": 1349,
      "difficulty": 1350,
      "difficulties": 1351,
      "platform": 1352,
      "relatedly": 1353,
      "cured": 1354,
      "efficacy": 1355,
      "fully": 1356,
      "minute": 1357,
      "prac": 1358,
      "princi": 1359,
      "said": 1360,
      "yet": 1361,
      "think": 1362,
      "informed": 1363,
      "regulation": 1364,
      "acceptable": 1365,
      "academics": 1366,
      "whereas": 1367,
      "systems": 1368,
      "professional": 1369,
      "biological": 1370,
      "norms": 1371,
      "neurologically": 1372,
      "reviews": 1373,
      "specialist": 1374,
      "benefic": 1375,
      "cultu": 1376,
      "cultur": 1377,
      "sensory": 1378,
      "allows": 1379,
      "establ": 1380,
      "added": 1381,
      "addressing": 1382,
      "severe": 1383,
      "conceptual": 1384,
      "defini": 1385,
      "expression": 1386,
      "emphasis": 1387,
      "emphasized": 1388,
      "control": 1389,
      "describe": 1390,
      "criticism": 1391,
      "humanity": 1392,
      "attempted": 1393,
      "attempting": 1394,
      "amount": 1395,
      "fied": 1396,
      "pathological": 1397,
      "turning": 1398,
      "analy": 1399,
      "analysis": 1400,
      "removed": 1401,
      "college": 1402,
      "interests": 1403,
      "interaction": 1404,
      "interactions": 1405,
      "playing": 1406,
      "positive": 1407,
      "growing": 1408,
      "question": 1409,
      "questions": 1410,
      "treatment": 1411,
      "harmful": 1412,
      "determining": 1413,
      "fundamental": 1414,
      "first": 1415,
      "guage": 1416,
      "grew": 1417,
      "judy": 1418,
      "label": 1419,
      "largely": 1420,
      "physician": 1421,
      "population": 1422,
      "schiz": 1423,
      "innate": 1424,
      "invol": 1425,
      "anyone": 1426,
      "changing": 1427,
      "authentic": 1428,
      "begun": 1429,
      "accessibil": 1430,
      "setting": 1431,
      "counseling": 1432,
      "discussion": 1433,
      "wiki": 1434,
      "raised": 1435,
      "provided": 1436,
      "performance": 1437,
      "achieve": 1438,
      "particular": 1439,
      "perspective": 1440,
      "tended": 1441,
      "acknowledging": 1442,
      "psychiat": 1443,
      "psychoeducation": 1444,
      "situations": 1445,
      "integration": 1446,
      "institutions": 1447,
      "controversial": 1448,
      "campaigns": 1449,
      "technology": 1450,
      "barriers": 1451,
      "blogs": 1452,
      "camoufl": 1453,
      "categor": 1454,
      "damian": 1455,
      "freely": 1456,
      "fashion": 1457,
      "giving": 1458,
      "honors": 1459,
      "hiring": 1460,
      "language": 1461,
      "mixed": 1462,
      "natural": 1463,
      "nachman": 1464,
      "purely": 1465,
      "pharmacological": 1466,
      "sinclair": 1467,
      "skills": 1468,
      "innovation": 1469,
      "intrinsically": 1470,
      "incorpor": 1471,
      "inherent": 1472,
      "diagnosis": 1473,
      "especially": 1474,
      "neuroscience": 1475,
      "neuroconforming": 1476,
      "receive": 1477,
      "issues": 1478,
      "adopted": 1479,
      "adults": 1480,
      "adjustments": 1481,
      "according": 1482,
      "uninterested": 1483,
      "conducted": 1484,
      "coordin": 1485,
      "societal": 1486,
      "resources": 1487,
      "advancements": 1488,
      "worsening": 1489,
      "classroom": 1490,
      "classified": 1491,
      "productivity": 1492,
      "perception": 1493,
      "pervasive": 1494,
      "weaknesses": 1495,
      "struggle": 1496,
      "strategies": 1497,
      "downplaying": 1498,
      "implementation": 1499,
      "portsmouth": 1500,
      "principles": 1501,
      "beneficial": 1502,
      "cultures": 1503,
      "fundamentally": 1504,
      "physicians": 1505,
      "accessibility": 1506,
      "psychiatr": 1507,
      "camouflaging": 1508,
      "af": 1509,
      "aro": 1510,
      "aver": 1511,
      "away": 1512,
      "avers": 1513,
      "aire": 1514,
      "aiding": 1515,
      "aanalysis": 1516,
      "bj": 1517,
      "ban": 1518,
      "bad": 1519,
      "berg": 1520,
      "bul": 1521,
      "blo": 1522,
      "ball": 1523,
      "bag": 1524,
      "bri": 1525,
      "bates": 1526,
      "black": 1527,
      "best": 1528,
      "bsites": 1529,
      "ca": 1530,
      "cs": 1531,
      "cy": 1532,
      "cal": 1533,
      "ctions": 1534,
      "core": 1535,
      "cend": 1536,
      "caring": 1537,
      "came": 1538,
      "dr": 1539,
      "dw": 1540,
      "den": 1541,
      "don": 1542,
      "dle": 1543,
      "dra": 1544,
      "doc": 1545,
      "dri": 1546,
      "dence": 1547,
      "dub": 1548,
      "done": 1549,
      "dary": 1550,
      "dness": 1551,
      "ev": 1552,
      "eth": 1553,
      "ele": 1554,
      "ead": 1555,
      "econ": 1556,
      "ether": 1557,
      "even": 1558,
      "eps": 1559,
      "ever": 1560,
      "eating": 1561,
      "equ": 1562,
      "eye": 1563,
      "equal": 1564,
      "epi": 1565,
      "elimin": 1566,
      "ft": 1567,
      "fal": 1568,
      "fed": 1569,
      "fers": 1570,
      "fac": 1571,
      "fid": 1572,
      "fig": 1573,
      "fri": 1574,
      "few": 1575,
      "fist": 1576,
      "fits": 1577,
      "fting": 1578,
      "flexi": 1579,
      "fail": 1580,
      "fran": 1581,
      "gs": 1582,
      "ged": 1583,
      "gap": 1584,
      "give": 1585,
      "gend": 1586,
      "gree": 1587,
      "ginn": 1588,
      "ht": 1589,
      "hin": 1590,
      "han": 1591,
      "hers": 1592,
      "hoc": 1593,
      "hol": 1594,
      "hard": 1595,
      "hren": 1596,
      "if": 1597,
      "idi": 1598,
      "ily": 1599,
      "ials": 1600,
      "ially": 1601,
      "ifer": 1602,
      "ible": 1603,
      "ipan": 1604,
      "jen": 1605,
      "jas": 1606,
      "jim": 1607,
      "ject": 1608,
      "kin": 1609,
      "ken": 1610,
      "kes": 1611,
      "kno": 1612,
      "kassi": 1613,
      "knowled": 1614,
      "lv": 1615,
      "land": 1616,
      "lar": 1617,
      "lit": 1618,
      "lent": 1619,
      "lve": 1620,
      "late": 1621,
      "lay": 1622,
      "lone": 1623,
      "lication": 1624,
      "light": 1625,
      "mu": 1626,
      "mes": 1627,
      "med": 1628,
      "mid": 1629,
      "mut": 1630,
      "massi": 1631,
      "mism": 1632,
      "mia": 1633,
      "might": 1634,
      "nt": 1635,
      "ny": 1636,
      "ner": 1637,
      "ned": 1638,
      "nual": 1639,
      "nam": 1640,
      "name": 1641,
      "nalist": 1642,
      "numb": 1643,
      "naire": 1644,
      "nifer": 1645,
      "oin": 1646,
      "oing": 1647,
      "ous": 1648,
      "oaff": 1649,
      "own": 1650,
      "otypes": 1651,
      "osed": 1652,
      "oiding": 1653,
      "pen": 1654,
      "pal": 1655,
      "ped": 1656,
      "pas": 1657,
      "ptic": 1658,
      "pra": 1659,
      "pthes": 1660,
      "pational": 1661,
      "pie": 1662,
      "ral": 1663,
      "rus": 1664,
      "rical": 1665,
      "rick": 1666,
      "sth": 1667,
      "son": 1668,
      "sand": 1669,
      "sto": 1670,
      "sco": 1671,
      "sick": 1672,
      "ssible": 1673,
      "ssom": 1674,
      "scend": 1675,
      "tt": 1676,
      "tw": 1677,
      "tal": 1678,
      "tor": 1679,
      "tas": 1680,
      "tle": 1681,
      "tch": 1682,
      "tri": 1683,
      "tte": 1684,
      "tant": 1685,
      "tors": 1686,
      "test": 1687,
      "targe": 1688,
      "tail": 1689,
      "text": 1690,
      "tute": 1691,
      "taanalysis": 1692,
      "uk": 1693,
      "up": 1694,
      "ues": 1695,
      "uly": 1696,
      "uce": 1697,
      "ura": 1698,
      "utive": 1699,
      "uable": 1700,
      "umas": 1701,
      "uenced": 1702,
      "vin": 1703,
      "vit": 1704,
      "vors": 1705,
      "wat": 1706,
      "wing": 1707,
      "wide": 1708,
      "wom": 1709,
      "wish": 1710,
      "yer": 1711,
      "yor": 1712,
      "yle": 1713,
      "yment": 1714,
      "yals": 1715,
      "thwhile": 1716,
      "things": 1717,
      "inal": 1718,
      "ined": 1719,
      "ining": 1720,
      "infin": 1721,
      "inct": 1722,
      "inally": 1723,
      "intention": 1724,
      "inning": 1725,
      "inattention": 1726,
      "infl": 1727,
      "insepar": 1728,
      "injur": 1729,
      "intended": 1730,
      "inlv": 1731,
      "eral": 1732,
      "ered": 1733,
      "ering": 1734,
      "erne": 1735,
      "eric": 1736,
      "erving": 1737,
      "erced": 1738,
      "erials": 1739,
      "erwat": 1740,
      "tial": 1741,
      "tied": 1742,
      "tisocial": 1743,
      "tives": 1744,
      "tigma": 1745,
      "tivation": 1746,
      "tirical": 1747,
      "enz": 1748,
      "ened": 1749,
      "ening": 1750,
      "enable": 1751,
      "enjo": 1752,
      "enet": 1753,
      "enforce": 1754,
      "encing": 1755,
      "encies": 1756,
      "ency": 1757,
      "enhan": 1758,
      "ones": 1759,
      "onable": 1760,
      "onies": 1761,
      "ane": 1762,
      "aning": 1763,
      "anies": 1764,
      "antit": 1765,
      "annual": 1766,
      "antisocial": 1767,
      "die": 1768,
      "dit": 1769,
      "dire": 1770,
      "dise": 1771,
      "dict": 1772,
      "diction": 1773,
      "dicho": 1774,
      "dicted": 1775,
      "alli": 1776,
      "aliz": 1777,
      "align": 1778,
      "orer": 1779,
      "ority": 1780,
      "orse": 1781,
      "orig": 1782,
      "orating": 1783,
      "orities": 1784,
      "orically": 1785,
      "orships": 1786,
      "este": 1787,
      "esign": 1788,
      "rome": 1789,
      "roten": 1790,
      "roke": 1791,
      "roles": 1792,
      "roduc": 1793,
      "robis": 1794,
      "edges": 1795,
      "edback": 1796,
      "ater": 1797,
      "atch": 1798,
      "attain": 1799,
      "ature": 1800,
      "attit": 1801,
      "andard": 1802,
      "ingent": 1803,
      "ingly": 1804,
      "arac": 1805,
      "nel": 1806,
      "nets": 1807,
      "neolog": 1808,
      "iter": 1809,
      "iting": 1810,
      "itch": 1811,
      "itud": 1812,
      "itate": 1813,
      "itte": 1814,
      "itself": 1815,
      "itbased": 1816,
      "itative": 1817,
      "entually": 1818,
      "asan": 1819,
      "asas": 1820,
      "aspec": 1821,
      "asures": 1822,
      "asible": 1823,
      "asonable": 1824,
      "tioning": 1825,
      "tionary": 1826,
      "diverg": 1827,
      "neurole": 1828,
      "neuroque": 1829,
      "neurocognition": 1830,
      "neurotype": 1831,
      "neurotypes": 1832,
      "neuroinclusive": 1833,
      "neurobiological": 1834,
      "erse": 1835,
      "ofol": 1836,
      "toure": 1837,
      "tood": 1838,
      "tomy": 1839,
      "lepsy": 1840,
      "lebr": 1841,
      "left": 1842,
      "leitch": 1843,
      "real": 1844,
      "reac": 1845,
      "reci": 1846,
      "recon": 1847,
      "rely": 1848,
      "reli": 1849,
      "repl": 1850,
      "ream": 1851,
      "rect": 1852,
      "requ": 1853,
      "recogn": 1854,
      "reconsider": 1855,
      "refra": 1856,
      "recei": 1857,
      "record": 1858,
      "refle": 1859,
      "reconceptual": 1860,
      "refers": 1861,
      "reasonable": 1862,
      "stent": 1863,
      "stated": 1864,
      "state": 1865,
      "stri": 1866,
      "states": 1867,
      "stere": 1868,
      "steps": 1869,
      "style": 1870,
      "stering": 1871,
      "stroke": 1872,
      "standard": 1873,
      "stream": 1874,
      "vecomp": 1875,
      "chap": 1876,
      "charac": 1877,
      "aumatic": 1878,
      "autreat": 1879,
      "solve": 1880,
      "icid": 1881,
      "icts": 1882,
      "icate": 1883,
      "ford": 1884,
      "forts": 1885,
      "forced": 1886,
      "mel": 1887,
      "metho": 1888,
      "metaanalysis": 1889,
      "meaning": 1890,
      "measures": 1891,
      "istive": 1892,
      "tice": 1893,
      "tics": 1894,
      "bell": 1895,
      "belong": 1896,
      "ads": 1897,
      "adequ": 1898,
      "aced": 1899,
      "acing": 1900,
      "action": 1901,
      "acts": 1902,
      "acqu": 1903,
      "access": 1904,
      "secon": 1905,
      "seem": 1906,
      "seems": 1907,
      "sure": 1908,
      "suff": 1909,
      "subj": 1910,
      "suicid": 1911,
      "cil": 1912,
      "cile": 1913,
      "concent": 1914,
      "confl": 1915,
      "confid": 1916,
      "idge": 1917,
      "identic": 1918,
      "mood": 1919,
      "motor": 1920,
      "motivation": 1921,
      "cooc": 1922,
      "cour": 1923,
      "covid": 1924,
      "costan": 1925,
      "coined": 1926,
      "coerced": 1927,
      "mentorships": 1928,
      "options": 1929,
      "opponents": 1930,
      "ophren": 1931,
      "neurodivergencies": 1932,
      "terns": 1933,
      "teristic": 1934,
      "iling": 1935,
      "ilies": 1936,
      "ilitate": 1937,
      "aba": 1938,
      "ably": 1939,
      "autisticled": 1940,
      "devi": 1941,
      "decre": 1942,
      "dete": 1943,
      "decis": 1944,
      "debates": 1945,
      "degree": 1946,
      "detail": 1947,
      "pport": 1948,
      "neurodiversitybased": 1949,
      "whel": 1950,
      "whether": 1951,
      "celebr": 1952,
      "neurodivergentneurodivergence": 1953,
      "mple": 1954,
      "sociolog": 1955,
      "uses": 1956,
      "usion": 1957,
      "usenet": 1958,
      "disinter": 1959,
      "discre": 1960,
      "nomen": 1961,
      "nobody": 1962,
      "nomia": 1963,
      "udl": 1964,
      "udes": 1965,
      "without": 1966,
      "restr": 1967,
      "respect": 1968,
      "peoples": 1969,
      "ortcom": 1970,
      "rative": 1971,
      "rayals": 1972,
      "radict": 1973,
      "rapport": 1974,
      "sifting": 1975,
      "sitioning": 1976,
      "sivecomp": 1977,
      "simple": 1978,
      "socialized": 1979,
      "socialization": 1980,
      "vivors": 1981,
      "vializ": 1982,
      "interag": 1983,
      "interperson": 1984,
      "internet": 1985,
      "interconne": 1986,
      "internets": 1987,
      "lier": 1988,
      "lies": 1989,
      "live": 1990,
      "lists": 1991,
      "liber": 1992,
      "liorating": 1993,
      "litics": 1994,
      "occu": 1995,
      "cessing": 1996,
      "cesca": 1997,
      "exemp": 1998,
      "expo": 1999,
      "exec": 2000,
      "expect": 2001,
      "extern": 2002,
      "extended": 2003,
      "somewhere": 2004,
      "somewhat": 2005,
      "earlier": 2006,
      "lose": 2007,
      "formed": 2008,
      "format": 2009,
      "formly": 2010,
      "under": 2011,
      "ired": 2012,
      "ircs": 2013,
      "making": 2014,
      "makes": 2015,
      "mailing": 2016,
      "uta": 2017,
      "adverse": 2018,
      "suppress": 2019,
      "suppressing": 2020,
      "supposed": 2021,
      "heigh": 2022,
      "urnalist": 2023,
      "word": 2024,
      "words": 2025,
      "worthwhile": 2026,
      "claim": 2027,
      "clature": 2028,
      "proven": 2029,
      "proced": 2030,
      "provide": 2031,
      "protes": 2032,
      "project": 2033,
      "protest": 2034,
      "processing": 2035,
      "supporting": 2036,
      "apply": 2037,
      "apprais": 2038,
      "applying": 2039,
      "application": 2040,
      "appoin": 2041,
      "appreci": 2042,
      "engage": 2043,
      "engaging": 2044,
      "england": 2045,
      "allistic": 2046,
      "whos": 2047,
      "whose": 2048,
      "percept": 2049,
      "perceived": 2050,
      "tson": 2051,
      "ately": 2052,
      "mante": 2053,
      "managing": 2054,
      "manner": 2055,
      "share": 2056,
      "sharing": 2057,
      "shared": 2058,
      "shortcom": 2059,
      "aged": 2060,
      "agues": 2061,
      "aching": 2062,
      "committe": 2063,
      "paration": 2064,
      "parts": 2065,
      "ribu": 2066,
      "sell": 2067,
      "selfin": 2068,
      "plus": 2069,
      "plural": 2070,
      "persist": 2071,
      "websites": 2072,
      "order": 2073,
      "communal": 2074,
      "communities": 2075,
      "communicate": 2076,
      "otherapeutic": 2077,
      "pose": 2078,
      "poten": 2079,
      "poses": 2080,
      "polar": 2081,
      "possible": 2082,
      "poorer": 2083,
      "politics": 2084,
      "tened": 2085,
      "educating": 2086,
      "kevin": 2087,
      "strict": 2088,
      "medicaldeficit": 2089,
      "medicalizing": 2090,
      "researcher": 2091,
      "atholog": 2092,
      "creation": 2093,
      "creating": 2094,
      "credit": 2095,
      "domin": 2096,
      "domain": 2097,
      "doher": 2098,
      "grown": 2099,
      "moreover": 2100,
      "essenti": 2101,
      "viewing": 2102,
      "fication": 2103,
      "healthy": 2104,
      "persons": 2105,
      "personenvironment": 2106,
      "personnel": 2107,
      "embr": 2108,
      "highlight": 2109,
      "team": 2110,
      "teaching": 2111,
      "relations": 2112,
      "relative": 2113,
      "rella": 2114,
      "contribut": 2115,
      "contingent": 2116,
      "contradict": 2117,
      "ambi": 2118,
      "americ": 2119,
      "careers": 2120,
      "follow": 2121,
      "fostering": 2122,
      "understood": 2123,
      "educational": 2124,
      "ctual": 2125,
      "lling": 2126,
      "nonacademic": 2127,
      "nonbin": 2128,
      "nonharmful": 2129,
      "thesis": 2130,
      "developers": 2131,
      "developments": 2132,
      "causes": 2133,
      "stigm": 2134,
      "ongoing": 2135,
      "challenging": 2136,
      "ctional": 2137,
      "impact": 2138,
      "impair": 2139,
      "implic": 2140,
      "impulsi": 2141,
      "impacts": 2142,
      "implies": 2143,
      "preval": 2144,
      "preconceived": 2145,
      "prelimin": 2146,
      "predicted": 2147,
      "preparation": 2148,
      "presents": 2149,
      "preserving": 2150,
      "quantit": 2151,
      "entirely": 2152,
      "oneer": 2153,
      "neurotypicals": 2154,
      "neurotypicalneuroconforming": 2155,
      "ableism": 2156,
      "experts": 2157,
      "helps": 2158,
      "models": 2159,
      "central": 2160,
      "destigma": 2161,
      "synd": 2162,
      "ideal": 2163,
      "selfview": 2164,
      "selfreport": 2165,
      "selfidenti": 2166,
      "selfadvocate": 2167,
      "selfdetermin": 2168,
      "selfdiagnosis": 2169,
      "selfeste": 2170,
      "helped": 2171,
      "helpful": 2172,
      "oling": 2173,
      "olar": 2174,
      "traditions": 2175,
      "training": 2176,
      "traitbased": 2177,
      "xia": 2178,
      "includes": 2179,
      "included": 2180,
      "argued": 2181,
      "arguably": 2182,
      "dysfunction": 2183,
      "dysgra": 2184,
      "dyscal": 2185,
      "dyspra": 2186,
      "dysnomia": 2187,
      "fellow": 2188,
      "feedback": 2189,
      "feasible": 2190,
      "omically": 2191,
      "portrayals": 2192,
      "portmante": 2193,
      "ageous": 2194,
      "strengthbased": 2195,
      "join": 2196,
      "journalist": 2197,
      "liness": 2198,
      "links": 2199,
      "mility": 2200,
      "overall": 2201,
      "overwhel": 2202,
      "singers": 2203,
      "useful": 2204,
      "increased": 2205,
      "endorse": 2206,
      "ards": 2207,
      "iculum": 2208,
      "additional": 2209,
      "functional": 2210,
      "publication": 2211,
      "boards": 2212,
      "ective": 2213,
      "ected": 2214,
      "focal": 2215,
      "gets": 2216,
      "goal": 2217,
      "good": 2218,
      "ions": 2219,
      "ionmaking": 2220,
      "lacking": 2221,
      "truly": 2222,
      "traumatic": 2223,
      "traction": 2224,
      "timing": 2225,
      "timonies": 2226,
      "ishments": 2227,
      "university": 2228,
      "uniformly": 2229,
      "developmentally": 2230,
      "consideration": 2231,
      "considerable": 2232,
      "deficitbased": 2233,
      "curing": 2234,
      "curve": 2235,
      "eld": 2236,
      "elf": 2237,
      "elder": 2238,
      "grative": 2239,
      "imal": 2240,
      "minority": 2241,
      "minimal": 2242,
      "right": 2243,
      "safe": 2244,
      "satirical": 2245,
      "serves": 2246,
      "serious": 2247,
      "thinks": 2248,
      "attentiondeficit": 2249,
      "assistive": 2250,
      "associate": 2251,
      "regions": 2252,
      "recently": 2253,
      "choices": 2254,
      "accepting": 2255,
      "modal": 2256,
      "neurodivergenceinformed": 2257,
      "depatholog": 2258,
      "system": 2259,
      "biodiversity": 2260,
      "effort": 2261,
      "efforts": 2262,
      "humility": 2263,
      "nson": 2264,
      "norm": 2265,
      "nessbased": 2266,
      "attribut": 2267,
      "networking": 2268,
      "reviewed": 2269,
      "connection": 2270,
      "connections": 2271,
      "comparing": 2272,
      "compati": 2273,
      "compared": 2274,
      "complic": 2275,
      "companies": 2276,
      "illnesses": 2277,
      "illnessbased": 2278,
      "designed": 2279,
      "depends": 2280,
      "brains": 2281,
      "furthermore": 2282,
      "accommodates": 2283,
      "accommodating": 2284,
      "aimed": 2285,
      "bias": 2286,
      "bidire": 2287,
      "bipolar": 2288,
      "bimodal": 2289,
      "culia": 2290,
      "flash": 2291,
      "harvey": 2292,
      "llectual": 2293,
      "rise": 2294,
      "risk": 2295,
      "sense": 2296,
      "indirect": 2297,
      "integrative": 2298,
      "intellectual": 2299,
      "institute": 2300,
      "instilling": 2301,
      "allowed": 2302,
      "studied": 2303,
      "address": 2304,
      "adapt": 2305,
      "separation": 2306,
      "separated": 2307,
      "separate": 2308,
      "separating": 2309,
      "conformity": 2310,
      "concerned": 2311,
      "define": 2312,
      "defined": 2313,
      "defining": 2314,
      "express": 2315,
      "expressing": 2316,
      "expressed": 2317,
      "employment": 2318,
      "emphasize": 2319,
      "stigmatiz": 2320,
      "critics": 2321,
      "critical": 2322,
      "criticized": 2323,
      "effective": 2324,
      "servs": 2325,
      "frameworks": 2326,
      "attempts": 2327,
      "identifying": 2328,
      "workplacebased": 2329,
      "bring": 2330,
      "bridge": 2331,
      "broken": 2332,
      "bility": 2333,
      "days": 2334,
      "fix": 2335,
      "field": 2336,
      "june": 2337,
      "male": 2338,
      "obtain": 2339,
      "obses": 2340,
      "obstruc": 2341,
      "obtaining": 2342,
      "odds": 2343,
      "ologization": 2344,
      "puts": 2345,
      "putting": 2346,
      "priorities": 2347,
      "pathologization": 2348,
      "reduce": 2349,
      "redesign": 2350,
      "introduc": 2351,
      "levels": 2352,
      "remote": 2353,
      "removing": 2354,
      "start": 2355,
      "colleges": 2356,
      "colleagues": 2357,
      "response": 2358,
      "responsible": 2359,
      "responsibil": 2360,
      "respondence": 2361,
      "combined": 2362,
      "existing": 2363,
      "existenz": 2364,
      "maintaining": 2365,
      "mainstream": 2366,
      "clinics": 2367,
      "plays": 2368,
      "position": 2369,
      "positions": 2370,
      "powerpoint": 2371,
      "treats": 2372,
      "assessing": 2373,
      "assessment": 2374,
      "assessments": 2375,
      "indicates": 2376,
      "organizing": 2377,
      "multipleyear": 2378,
      "independently": 2379,
      "determine": 2380,
      "akht": 2381,
      "ameliorating": 2382,
      "ailable": 2383,
      "correspondence": 2384,
      "calls": 2385,
      "called": 2386,
      "dynam": 2387,
      "funding": 2388,
      "firsth": 2389,
      "guide": 2390,
      "greater": 2391,
      "gained": 2392,
      "gaining": 2393,
      "judge": 2394,
      "longterm": 2395,
      "longitud": 2396,
      "misunderstanding": 2397,
      "misinformation": 2398,
      "misunderstood": 2399,
      "phia": 2400,
      "pattern": 2401,
      "patrick": 2402,
      "patterns": 2403,
      "popped": 2404,
      "quality": 2405,
      "qualitative": 2406,
      "range": 2407,
      "ransom": 2408,
      "scholar": 2409,
      "twoyear": 2410,
      "validi": 2411,
      "valuable": 2412,
      "inviting": 2413,
      "arily": 2414,
      "astexistenz": 2415,
      "leading": 2416,
      "changes": 2417,
      "authors": 2418,
      "beginning": 2419,
      "accessible": 2420,
      "successful": 2421,
      "successfully": 2422,
      "conception": 2423,
      "conceptions": 2424,
      "concepts": 2425,
      "conferences": 2426,
      "conferred": 2427,
      "conferencing": 2428,
      "council": 2429,
      "disclose": 2430,
      "wiktionary": 2431,
      "advantage": 2432,
      "providing": 2433,
      "achieved": 2434,
      "partly": 2435,
      "participan": 2436,
      "perspectives": 2437,
      "speaking": 2438,
      "speaks": 2439,
      "speaker": 2440,
      "acknowledge": 2441,
      "centered": 2442,
      "curring": 2443,
      "current": 2444,
      "curriculum": 2445,
      "psychotherapeutic": 2446,
      "psychosocial": 2447,
      "normalize": 2448,
      "normalization": 2449,
      "situates": 2450,
      "connecting": 2451,
      "inclusionfocused": 2452,
      "integral": 2453,
      "institution": 2454,
      "controversially": 2455,
      "builds": 2456,
      "building": 2457,
      "broader": 2458,
      "broadening": 2459,
      "videoconferencing": 2460,
      "pushed": 2461,
      "technologies": 2462,
      "avoiding": 2463,
      "available": 2464,
      "background": 2465,
      "curative": 2466,
      "cisgend": 2467,
      "ctedness": 2468,
      "fletch": 2469,
      "falls": 2470,
      "family": 2471,
      "families": 2472,
      "factual": 2473,
      "factors": 2474,
      "history": 2475,
      "historically": 2476,
      "jurious": 2477,
      "mentions": 2478,
      "matter": 2479,
      "materials": 2480,
      "made": 2481,
      "ndbis": 2482,
      "pioneer": 2483,
      "pancies": 2484,
      "panda": 2485,
      "pandemic": 2486,
      "pursue": 2487,
      "purposes": 2488,
      "patient": 2489,
      "patients": 2490,
      "reducing": 2491,
      "reduction": 2492,
      "schools": 2493,
      "schooling": 2494,
      "testimonies": 2495,
      "umbrella": 2496,
      "wrong": 2497,
      "writer": 2498,
      "instance": 2499,
      "instead": 2500,
      "tize": 2501,
      "distinct": 2502,
      "distribu": 2503,
      "robert": 2504,
      "robertson": 2505,
      "arise": 2506,
      "arises": 2507,
      "necessary": 2508,
      "necessarily": 2509,
      "tolerant": 2510,
      "tolerance": 2511,
      "towards": 2512,
      "ready": 2513,
      "reading": 2514,
      "references": 2515,
      "referred": 2516,
      "stanford": 2517,
      "stressed": 2518,
      "survey": 2519,
      "survivors": 2520,
      "consists": 2521,
      "consistent": 2522,
      "conversation": 2523,
      "conversations": 2524,
      "construct": 2525,
      "constructions": 2526,
      "mourn": 2527,
      "mourning": 2528,
      "autisticsorg": 2529,
      "whitejoh": 2530,
      "discover": 2531,
      "discoura": 2532,
      "disadvantaged": 2533,
      "disadvantageous": 2534,
      "happened": 2535,
      "ulsive": 2536,
      "interviewing": 2537,
      "interpret": 2538,
      "interpreted": 2539,
      "listservs": 2540,
      "limited": 2541,
      "limitations": 2542,
      "exclude": 2543,
      "exclusion": 2544,
      "promote": 2545,
      "promoting": 2546,
      "commons": 2547,
      "posted": 2548,
      "postsecon": 2549,
      "appearing": 2550,
      "appeared": 2551,
      "emerged": 2552,
      "emerging": 2553,
      "continue": 2554,
      "continued": 2555,
      "improvement": 2556,
      "preferences": 2557,
      "symbol": 2558,
      "symbols": 2559,
      "traditional": 2560,
      "traditionally": 2561,
      "thought": 2562,
      "john": 2563,
      "overlook": 2564,
      "overlooking": 2565,
      "variation": 2566,
      "variety": 2567,
      "transcend": 2568,
      "transitioning": 2569,
      "universal": 2570,
      "universities": 2571,
      "practical": 2572,
      "practice": 2573,
      "specialists": 2574,
      "specialisterne": 2575,
      "cultural": 2576,
      "culturally": 2577,
      "established": 2578,
      "establishments": 2579,
      "definition": 2580,
      "definitions": 2581,
      "humanitys": 2582,
      "analysts": 2583,
      "analytical": 2584,
      "questionnaire": 2585,
      "labels": 2586,
      "schizoaff": 2587,
      "schizophren": 2588,
      "involve": 2589,
      "involving": 2590,
      "authenticity": 2591,
      "settings": 2592,
      "discussions": 2593,
      "wikimedia": 2594,
      "wikiversity": 2595,
      "achievement": 2596,
      "categories": 2597,
      "categorized": 2598,
      "naturalistic": 2599,
      "pharmacologicalpsychosocial": 2600,
      "sinclairs": 2601,
      "incorporates": 2602,
      "incorporating": 2603,
      "inherently": 2604,
      "coordination": 2605,
      "coordinating": 2606,
      "pervasively": 2607,
      "psychiatry": 2608,
      "psychiatric": 2609,
      "after": 2610,
      "around": 2611,
      "average": 2612,
      "aversive": 2613,
      "bank": 2614,
      "bullying": 2615,
      "blossom": 2616,
      "ballastexistenz": 2617,
      "baggs": 2618,
      "brief": 2619,
      "dwyer": 2620,
      "deny": 2621,
      "dont": 2622,
      "drawing": 2623,
      "doctors": 2624,
      "driving": 2625,
      "dubious": 2626,
      "eventually": 2627,
      "ethical": 2628,
      "elements": 2629,
      "economically": 2630,
      "epilepsy": 2631,
      "eliminated": 2632,
      "false": 2633,
      "federal": 2634,
      "facilitate": 2635,
      "figure": 2636,
      "frith": 2637,
      "flexibility": 2638,
      "francesca": 2639,
      "ginny": 2640,
      "hinder": 2641,
      "herself": 2642,
      "hock": 2643,
      "holds": 2644,
      "jennifer": 2645,
      "jaswal": 2646,
      "kindness": 2647,
      "known": 2648,
      "kassiane": 2649,
      "knowledge": 2650,
      "little": 2651,
      "laying": 2652,
      "loneliness": 2653,
      "much": 2654,
      "middle": 2655,
      "mutually": 2656,
      "massive": 2657,
      "mismatch": 2658,
      "nyu": 2659,
      "namely": 2660,
      "number": 2661,
      "penpal": 2662,
      "passing": 2663,
      "ptheshock": 2664,
      "piece": 2665,
      "russell": 2666,
      "sandbank": 2667,
      "stoptheshock": 2668,
      "scott": 2669,
      "twofol": 2670,
      "talents": 2671,
      "task": 2672,
      "trivializ": 2673,
      "tantamount": 2674,
      "targeted": 2675,
      "textbased": 2676,
      "umasu": 2677,
      "vital": 2678,
      "widely": 2679,
      "women": 2680,
      "york": 2681,
      "infinity": 2682,
      "influenced": 2683,
      "inseparable": 2684,
      "injury": 2685,
      "erwatson": 2686,
      "enjoy": 2687,
      "enhancing": 2688,
      "disease": 2689,
      "dictionary": 2690,
      "dichotomy": 2691,
      "alliance": 2692,
      "originally": 2693,
      "rotenberg": 2694,
      "robison": 2695,
      "attainable": 2696,
      "attitudes": 2697,
      "neologism": 2698,
      "asasumasu": 2699,
      "aspects": 2700,
      "diverges": 2701,
      "neuroleptic": 2702,
      "neuroqueer": 2703,
      "tourette": 2704,
      "leitchs": 2705,
      "reactions": 2706,
      "reconcile": 2707,
      "reliability": 2708,
      "replacing": 2709,
      "required": 2710,
      "recognize": 2711,
      "reframes": 2712,
      "receiving": 2713,
      "recorded": 2714,
      "reflect": 2715,
      "reconceptualize": 2716,
      "strive": 2717,
      "stereotypes": 2718,
      "chapman": 2719,
      "characteristic": 2720,
      "methods": 2721,
      "belongs": 2722,
      "adequately": 2723,
      "acquire": 2724,
      "seemingly": 2725,
      "suffered": 2726,
      "subjected": 2727,
      "suicidality": 2728,
      "concentrate": 2729,
      "conflicts": 2730,
      "confidence": 2731,
      "identical": 2732,
      "cooccurring": 2733,
      "course": 2734,
      "costandi": 2735,
      "deviations": 2736,
      "decrease": 2737,
      "detection": 2738,
      "decisionmaking": 2739,
      "celebrating": 2740,
      "sociology": 2741,
      "disinterest": 2742,
      "discrepancies": 2743,
      "nomenclature": 2744,
      "restrict": 2745,
      "respecting": 2746,
      "sivecompulsive": 2747,
      "interagency": 2748,
      "interpersonal": 2749,
      "interconnectedness": 2750,
      "liberating": 2751,
      "occupational": 2752,
      "exempt": 2753,
      "exposure": 2754,
      "executive": 2755,
      "expectations": 2756,
      "external": 2757,
      "heightened": 2758,
      "claiming": 2759,
      "procedures": 2760,
      "protests": 2761,
      "appraisal": 2762,
      "appointed": 2763,
      "appreciating": 2764,
      "perceptual": 2765,
      "shortcomings": 2766,
      "committee": 2767,
      "selfinjurious": 2768,
      "pluralism": 2769,
      "persistent": 2770,
      "potential": 2771,
      "strictly": 2772,
      "dominant": 2773,
      "domains": 2774,
      "doherty": 2775,
      "essential": 2776,
      "embraced": 2777,
      "contribute": 2778,
      "contradictory": 2779,
      "ambitions": 2780,
      "american": 2781,
      "nonbinary": 2782,
      "stigmas": 2783,
      "implications": 2784,
      "impulsivity": 2785,
      "prevalent": 2786,
      "preliminary": 2787,
      "quantitative": 2788,
      "destigmatize": 2789,
      "syndrome": 2790,
      "selfidentification": 2791,
      "selfdetermination": 2792,
      "selfesteem": 2793,
      "dysgraphia": 2794,
      "dyscalculia": 2795,
      "dyspraxia": 2796,
      "portmanteau": 2797,
      "overwhelmed": 2798,
      "endorsements": 2799,
      "depathologized": 2800,
      "attributing": 2801,
      "compatible": 2802,
      "complicate": 2803,
      "bidirectional": 2804,
      "flashblogs": 2805,
      "indirectly": 2806,
      "stigmatizing": 2807,
      "obsessivecompulsive": 2808,
      "obstructive": 2809,
      "redesigned": 2810,
      "introduced": 2811,
      "responsibilities": 2812,
      "akhtar": 2813,
      "dynamics": 2814,
      "firsthand": 2815,
      "longitudinal": 2816,
      "validity": 2817,
      "participants": 2818,
      "backgrounds": 2819,
      "cisgender": 2820,
      "fletcherwatson": 2821,
      "distribution": 2822,
      "whitejohnson": 2823,
      "discouraged": 2824,
      "postsecondary": 2825,
      "transcends": 2826,
      "schizoaffective": 2827,
      "schizophrenia": 2828,
      "twofold": 2829,
      "trivializes": 2830,
      "characteristics": 2831
    },
    "merges": [
      [
        "t",
        "h"
      ],
      [
        "i",
        "n"
      ],
      [
        "e",
        "r"
      ],
      [
        "t",
        "i"
      ],
      [
        "e",
        "n"
      ],
      [
        "o",
        "n"
      ],
      [
        "a",
        "n"
      ],
      [
        "d",
        "i"
      ],
      [
        "a",
        "l"
      ],
      [
        "o",
        "r"
      ],
      [
        "e",
        "s"
      ],
      [
        "r",
        "o"
      ],
      [
        "th",
        "e"
      ],
      [
        "e",
        "d"
      ],
      [
        "a",
        "t"
      ],
      [
        "an",
        "d"
      ],
      [
        "in",
        "g"
      ],
      [
        "a",
        "r"
      ],
      [
        "n",
        "e"
      ],
      [
        "i",
        "t"
      ],
      [
        "en",
        "t"
      ],
      [
        "a",
        "s"
      ],
      [
        "ti",
        "on"
      ],
      [
        "di",
        "v"
      ],
      [
        "u",
        "ro"
      ],
      [
        "ne",
        "uro"
      ],
      [
        "er",
        "s"
      ],
      [
        "o",
        "f"
      ],
      [
        "t",
        "o"
      ],
      [
        "l",
        "e"
      ],
      [
        "r",
        "e"
      ],
      [
        "it",
        "y"
      ],
      [
        "neuro",
        "div"
      ],
      [
        "s",
        "t"
      ],
      [
        "v",
        "e"
      ],
      [
        "c",
        "h"
      ],
      [
        "a",
        "u"
      ],
      [
        "s",
        "o"
      ],
      [
        "i",
        "c"
      ],
      [
        "f",
        "or"
      ],
      [
        "m",
        "e"
      ],
      [
        "i",
        "s"
      ],
      [
        "ti",
        "c"
      ],
      [
        "b",
        "e"
      ],
      [
        "ti",
        "s"
      ],
      [
        "au",
        "tis"
      ],
      [
        "a",
        "d"
      ],
      [
        "th",
        "at"
      ],
      [
        "a",
        "c"
      ],
      [
        "p",
        "e"
      ],
      [
        "a",
        "tion"
      ],
      [
        "u",
        "n"
      ],
      [
        "s",
        "e"
      ],
      [
        "s",
        "u"
      ],
      [
        "c",
        "i"
      ],
      [
        "c",
        "on"
      ],
      [
        "i",
        "d"
      ],
      [
        "m",
        "o"
      ],
      [
        "c",
        "o"
      ],
      [
        "ers",
        "ity"
      ],
      [
        "m",
        "ent"
      ],
      [
        "er",
        "g"
      ],
      [
        "l",
        "y"
      ],
      [
        "o",
        "p"
      ],
      [
        "neurodiv",
        "erg"
      ],
      [
        "t",
        "er"
      ],
      [
        "i",
        "l"
      ],
      [
        "a",
        "b"
      ],
      [
        "autis",
        "tic"
      ],
      [
        "d",
        "e"
      ],
      [
        "p",
        "p"
      ],
      [
        "neurodiv",
        "ersity"
      ],
      [
        "w",
        "h"
      ],
      [
        "c",
        "e"
      ],
      [
        "th",
        "er"
      ],
      [
        "ar",
        "e"
      ],
      [
        "neurodiverg",
        "ent"
      ],
      [
        "m",
        "p"
      ],
      [
        "so",
        "ci"
      ],
      [
        "u",
        "s"
      ],
      [
        "di",
        "s"
      ],
      [
        "w",
        "i"
      ],
      [
        "n",
        "o"
      ],
      [
        "u",
        "d"
      ],
      [
        "wi",
        "th"
      ],
      [
        "h",
        "a"
      ],
      [
        "r",
        "es"
      ],
      [
        "u",
        "l"
      ],
      [
        "f",
        "f"
      ],
      [
        "pe",
        "op"
      ],
      [
        "peop",
        "le"
      ],
      [
        "u",
        "al"
      ],
      [
        "or",
        "t"
      ],
      [
        "r",
        "a"
      ],
      [
        "s",
        "i"
      ],
      [
        "ic",
        "al"
      ],
      [
        "soci",
        "al"
      ],
      [
        "v",
        "i"
      ],
      [
        "in",
        "ter"
      ],
      [
        "me",
        "di"
      ],
      [
        "tion",
        "s"
      ],
      [
        "co",
        "m"
      ],
      [
        "i",
        "g"
      ],
      [
        "l",
        "i"
      ],
      [
        "o",
        "c"
      ],
      [
        "t",
        "y"
      ],
      [
        "c",
        "es"
      ],
      [
        "e",
        "x"
      ],
      [
        "so",
        "me"
      ],
      [
        "e",
        "ar"
      ],
      [
        "l",
        "o"
      ],
      [
        "in",
        "div"
      ],
      [
        "st",
        "ud"
      ],
      [
        "for",
        "m"
      ],
      [
        "un",
        "d"
      ],
      [
        "id",
        "ual"
      ],
      [
        "indiv",
        "idual"
      ],
      [
        "i",
        "r"
      ],
      [
        "m",
        "a"
      ],
      [
        "u",
        "t"
      ],
      [
        "ent",
        "s"
      ],
      [
        "ad",
        "v"
      ],
      [
        "su",
        "pp"
      ],
      [
        "h",
        "e"
      ],
      [
        "u",
        "r"
      ],
      [
        "w",
        "or"
      ],
      [
        "ab",
        "il"
      ],
      [
        "c",
        "l"
      ],
      [
        "at",
        "ed"
      ],
      [
        "ha",
        "ve"
      ],
      [
        "p",
        "ro"
      ],
      [
        "mo",
        "ve"
      ],
      [
        "no",
        "t"
      ],
      [
        "supp",
        "ort"
      ],
      [
        "di",
        "ff"
      ],
      [
        "e",
        "mp"
      ],
      [
        "individual",
        "s"
      ],
      [
        "a",
        "pp"
      ],
      [
        "u",
        "c"
      ],
      [
        "ti",
        "ve"
      ],
      [
        "en",
        "g"
      ],
      [
        "al",
        "l"
      ],
      [
        "autis",
        "m"
      ],
      [
        "stud",
        "ents"
      ],
      [
        "wh",
        "o"
      ],
      [
        "move",
        "ment"
      ],
      [
        "h",
        "as"
      ],
      [
        "i",
        "z"
      ],
      [
        "p",
        "er"
      ],
      [
        "t",
        "s"
      ],
      [
        "at",
        "e"
      ],
      [
        "su",
        "ch"
      ],
      [
        "dis",
        "abil"
      ],
      [
        "ig",
        "h"
      ],
      [
        "adv",
        "oc"
      ],
      [
        "wor",
        "k"
      ],
      [
        "m",
        "an"
      ],
      [
        "s",
        "h"
      ],
      [
        "a",
        "g"
      ],
      [
        "a",
        "ch"
      ],
      [
        "en",
        "ces"
      ],
      [
        "com",
        "m"
      ],
      [
        "b",
        "y"
      ],
      [
        "p",
        "ar"
      ],
      [
        "r",
        "i"
      ],
      [
        "t",
        "ed"
      ],
      [
        "v",
        "en"
      ],
      [
        "se",
        "l"
      ],
      [
        "c",
        "an"
      ],
      [
        "f",
        "ro"
      ],
      [
        "p",
        "s"
      ],
      [
        "diff",
        "er"
      ],
      [
        "fro",
        "m"
      ],
      [
        "p",
        "l"
      ],
      [
        "p",
        "ers"
      ],
      [
        "w",
        "e"
      ],
      [
        "en",
        "ce"
      ],
      [
        "or",
        "d"
      ],
      [
        "inter",
        "ven"
      ],
      [
        "medi",
        "c"
      ],
      [
        "comm",
        "un"
      ],
      [
        "o",
        "ther"
      ],
      [
        "p",
        "o"
      ],
      [
        "t",
        "en"
      ],
      [
        "v",
        "er"
      ],
      [
        "in",
        "cl"
      ],
      [
        "the",
        "m"
      ],
      [
        "the",
        "ir"
      ],
      [
        "ed",
        "uc"
      ],
      [
        "ment",
        "al"
      ],
      [
        "medi",
        "a"
      ],
      [
        "lo",
        "g"
      ],
      [
        "e",
        "w"
      ],
      [
        "k",
        "e"
      ],
      [
        "al",
        "th"
      ],
      [
        "or",
        "e"
      ],
      [
        "st",
        "r"
      ],
      [
        "res",
        "ear"
      ],
      [
        "ty",
        "p"
      ],
      [
        "disabil",
        "ity"
      ],
      [
        "medic",
        "al"
      ],
      [
        "resear",
        "ch"
      ],
      [
        "a",
        "th"
      ],
      [
        "c",
        "re"
      ],
      [
        "d",
        "o"
      ],
      [
        "g",
        "ro"
      ],
      [
        "m",
        "ore"
      ],
      [
        "es",
        "s"
      ],
      [
        "ve",
        "l"
      ],
      [
        "vi",
        "ew"
      ],
      [
        "app",
        "ro"
      ],
      [
        "a",
        "y"
      ],
      [
        "f",
        "in"
      ],
      [
        "f",
        "ic"
      ],
      [
        "al",
        "so"
      ],
      [
        "at",
        "es"
      ],
      [
        "ter",
        "m"
      ],
      [
        "ce",
        "p"
      ],
      [
        "he",
        "alth"
      ],
      [
        "pers",
        "on"
      ],
      [
        "a",
        "p"
      ],
      [
        "e",
        "m"
      ],
      [
        "h",
        "igh"
      ],
      [
        "t",
        "e"
      ],
      [
        "er",
        "e"
      ],
      [
        "ne",
        "ed"
      ],
      [
        "re",
        "l"
      ],
      [
        "con",
        "t"
      ],
      [
        "wh",
        "i"
      ],
      [
        "ther",
        "e"
      ],
      [
        "typ",
        "ical"
      ],
      [
        "a",
        "m"
      ],
      [
        "c",
        "are"
      ],
      [
        "f",
        "o"
      ],
      [
        "i",
        "o"
      ],
      [
        "o",
        "ut"
      ],
      [
        "ti",
        "es"
      ],
      [
        "be",
        "en"
      ],
      [
        "dis",
        "ord"
      ],
      [
        "ul",
        "d"
      ],
      [
        "und",
        "ers"
      ],
      [
        "ma",
        "y"
      ],
      [
        "educ",
        "ation"
      ],
      [
        "appro",
        "ach"
      ],
      [
        "high",
        "er"
      ],
      [
        "c",
        "t"
      ],
      [
        "l",
        "l"
      ],
      [
        "n",
        "on"
      ],
      [
        "t",
        "and"
      ],
      [
        "u",
        "b"
      ],
      [
        "th",
        "es"
      ],
      [
        "at",
        "ing"
      ],
      [
        "ar",
        "g"
      ],
      [
        "be",
        "ha"
      ],
      [
        "ation",
        "s"
      ],
      [
        "de",
        "vel"
      ],
      [
        "vi",
        "or"
      ],
      [
        "sh",
        "o"
      ],
      [
        "interven",
        "tions"
      ],
      [
        "unders",
        "tand"
      ],
      [
        "beha",
        "vior"
      ],
      [
        "devel",
        "op"
      ],
      [
        "a",
        "in"
      ],
      [
        "c",
        "au"
      ],
      [
        "i",
        "ties"
      ],
      [
        "s",
        "ti"
      ],
      [
        "y",
        "s"
      ],
      [
        "on",
        "g"
      ],
      [
        "the",
        "y"
      ],
      [
        "ch",
        "all"
      ],
      [
        "si",
        "on"
      ],
      [
        "li",
        "ke"
      ],
      [
        "emp",
        "ath"
      ],
      [
        "commun",
        "ity"
      ],
      [
        "research",
        "ers"
      ],
      [
        "fo",
        "und"
      ],
      [
        "chall",
        "eng"
      ],
      [
        "c",
        "tion"
      ],
      [
        "i",
        "st"
      ],
      [
        "i",
        "mp"
      ],
      [
        "l",
        "ed"
      ],
      [
        "p",
        "re"
      ],
      [
        "p",
        "res"
      ],
      [
        "q",
        "u"
      ],
      [
        "s",
        "pe"
      ],
      [
        "v",
        "es"
      ],
      [
        "en",
        "ti"
      ],
      [
        "on",
        "e"
      ],
      [
        "di",
        "tion"
      ],
      [
        "al",
        "s"
      ],
      [
        "al",
        "ly"
      ],
      [
        "or",
        "y"
      ],
      [
        "neuro",
        "typical"
      ],
      [
        "ac",
        "k"
      ],
      [
        "mo",
        "de"
      ],
      [
        "ab",
        "le"
      ],
      [
        "ex",
        "per"
      ],
      [
        "he",
        "l"
      ],
      [
        "cep",
        "t"
      ],
      [
        "thes",
        "e"
      ],
      [
        "cau",
        "se"
      ],
      [
        "mode",
        "l"
      ],
      [
        "c",
        "ent"
      ],
      [
        "d",
        "es"
      ],
      [
        "s",
        "y"
      ],
      [
        "u",
        "g"
      ],
      [
        "v",
        "ing"
      ],
      [
        "it",
        "s"
      ],
      [
        "as",
        "ed"
      ],
      [
        "be",
        "cause"
      ],
      [
        "id",
        "e"
      ],
      [
        "form",
        "s"
      ],
      [
        "advoc",
        "ates"
      ],
      [
        "sel",
        "f"
      ],
      [
        "differ",
        "ences"
      ],
      [
        "log",
        "ical"
      ],
      [
        "gro",
        "u"
      ],
      [
        "exper",
        "i"
      ],
      [
        "hel",
        "p"
      ],
      [
        "a",
        "ff"
      ],
      [
        "b",
        "ut"
      ],
      [
        "b",
        "ased"
      ],
      [
        "e",
        "ty"
      ],
      [
        "g",
        "n"
      ],
      [
        "o",
        "l"
      ],
      [
        "t",
        "ra"
      ],
      [
        "w",
        "as"
      ],
      [
        "x",
        "i"
      ],
      [
        "an",
        "t"
      ],
      [
        "an",
        "ce"
      ],
      [
        "be",
        "ing"
      ],
      [
        "co",
        "gn"
      ],
      [
        "us",
        "ed"
      ],
      [
        "ig",
        "n"
      ],
      [
        "man",
        "y"
      ],
      [
        "incl",
        "ud"
      ],
      [
        "fin",
        "d"
      ],
      [
        "need",
        "s"
      ],
      [
        "disord",
        "er"
      ],
      [
        "arg",
        "u"
      ],
      [
        "understand",
        "ing"
      ],
      [
        "challeng",
        "es"
      ],
      [
        "c",
        "ri"
      ],
      [
        "d",
        "ys"
      ],
      [
        "f",
        "e"
      ],
      [
        "f",
        "er"
      ],
      [
        "g",
        "m"
      ],
      [
        "g",
        "es"
      ],
      [
        "k",
        "ing"
      ],
      [
        "m",
        "b"
      ],
      [
        "o",
        "m"
      ],
      [
        "p",
        "ort"
      ],
      [
        "s",
        "id"
      ],
      [
        "th",
        "o"
      ],
      [
        "di",
        "tions"
      ],
      [
        "con",
        "sid"
      ],
      [
        "il",
        "d"
      ],
      [
        "de",
        "fic"
      ],
      [
        "eng",
        "th"
      ],
      [
        "ag",
        "e"
      ],
      [
        "we",
        "ll"
      ],
      [
        "str",
        "ength"
      ],
      [
        "whi",
        "ch"
      ],
      [
        "io",
        "us"
      ],
      [
        "non",
        "autistic"
      ],
      [
        "ug",
        "h"
      ],
      [
        "cogn",
        "i"
      ],
      [
        "a",
        "di"
      ],
      [
        "c",
        "er"
      ],
      [
        "f",
        "un"
      ],
      [
        "i",
        "es"
      ],
      [
        "i",
        "ve"
      ],
      [
        "j",
        "o"
      ],
      [
        "l",
        "in"
      ],
      [
        "m",
        "s"
      ],
      [
        "m",
        "il"
      ],
      [
        "o",
        "ver"
      ],
      [
        "p",
        "ub"
      ],
      [
        "s",
        "ing"
      ],
      [
        "u",
        "se"
      ],
      [
        "v",
        "ar"
      ],
      [
        "w",
        "ay"
      ],
      [
        "w",
        "ere"
      ],
      [
        "th",
        "is"
      ],
      [
        "in",
        "cre"
      ],
      [
        "en",
        "d"
      ],
      [
        "an",
        "other"
      ],
      [
        "ar",
        "d"
      ],
      [
        "ar",
        "y"
      ],
      [
        "ic",
        "ul"
      ],
      [
        "ad",
        "dition"
      ],
      [
        "con",
        "ditions"
      ],
      [
        "ment",
        "s"
      ],
      [
        "ab",
        "out"
      ],
      [
        "us",
        "ers"
      ],
      [
        "par",
        "adi"
      ],
      [
        "approach",
        "es"
      ],
      [
        "includ",
        "ing"
      ],
      [
        "fun",
        "ction"
      ],
      [
        "pub",
        "l"
      ],
      [
        "paradi",
        "gm"
      ],
      [
        "a",
        "mp"
      ],
      [
        "b",
        "o"
      ],
      [
        "b",
        "le"
      ],
      [
        "e",
        "c"
      ],
      [
        "f",
        "oc"
      ],
      [
        "g",
        "e"
      ],
      [
        "g",
        "o"
      ],
      [
        "i",
        "on"
      ],
      [
        "l",
        "ack"
      ],
      [
        "p",
        "on"
      ],
      [
        "t",
        "r"
      ],
      [
        "t",
        "on"
      ],
      [
        "t",
        "re"
      ],
      [
        "t",
        "ain"
      ],
      [
        "v",
        "ers"
      ],
      [
        "v",
        "ity"
      ],
      [
        "w",
        "n"
      ],
      [
        "w",
        "o"
      ],
      [
        "y",
        "ear"
      ],
      [
        "ti",
        "m"
      ],
      [
        "as",
        "e"
      ],
      [
        "div",
        "ersity"
      ],
      [
        "le",
        "ar"
      ],
      [
        "is",
        "h"
      ],
      [
        "be",
        "t"
      ],
      [
        "ac",
        "e"
      ],
      [
        "ac",
        "ti"
      ],
      [
        "un",
        "i"
      ],
      [
        "ther",
        "ap"
      ],
      [
        "ical",
        "ly"
      ],
      [
        "ear",
        "ly"
      ],
      [
        "stud",
        "y"
      ],
      [
        "diff",
        "icul"
      ],
      [
        "iz",
        "e"
      ],
      [
        "sel",
        "ves"
      ],
      [
        "pl",
        "at"
      ],
      [
        "ten",
        "tion"
      ],
      [
        "them",
        "selves"
      ],
      [
        "health",
        "care"
      ],
      [
        "em",
        "ic"
      ],
      [
        "rel",
        "ated"
      ],
      [
        "sho",
        "uld"
      ],
      [
        "develop",
        "mental"
      ],
      [
        "empath",
        "y"
      ],
      [
        "experi",
        "ences"
      ],
      [
        "consid",
        "er"
      ],
      [
        "defic",
        "it"
      ],
      [
        "strength",
        "s"
      ],
      [
        "c",
        "ur"
      ],
      [
        "e",
        "l"
      ],
      [
        "e",
        "ff"
      ],
      [
        "f",
        "es"
      ],
      [
        "f",
        "ul"
      ],
      [
        "g",
        "ra"
      ],
      [
        "g",
        "ges"
      ],
      [
        "h",
        "o"
      ],
      [
        "i",
        "m"
      ],
      [
        "i",
        "ps"
      ],
      [
        "m",
        "in"
      ],
      [
        "n",
        "ing"
      ],
      [
        "p",
        "r"
      ],
      [
        "r",
        "igh"
      ],
      [
        "s",
        "a"
      ],
      [
        "s",
        "er"
      ],
      [
        "s",
        "ci"
      ],
      [
        "t",
        "ing"
      ],
      [
        "v",
        "id"
      ],
      [
        "y",
        "e"
      ],
      [
        "th",
        "in"
      ],
      [
        "in",
        "form"
      ],
      [
        "the",
        "ory"
      ],
      [
        "at",
        "tention"
      ],
      [
        "ar",
        "tic"
      ],
      [
        "as",
        "s"
      ],
      [
        "as",
        "soci"
      ],
      [
        "as",
        "si"
      ],
      [
        "of",
        "ten"
      ],
      [
        "re",
        "g"
      ],
      [
        "re",
        "cent"
      ],
      [
        "ch",
        "o"
      ],
      [
        "ch",
        "ild"
      ],
      [
        "ic",
        "ation"
      ],
      [
        "ad",
        "emic"
      ],
      [
        "ac",
        "cept"
      ],
      [
        "ac",
        "ademic"
      ],
      [
        "su",
        "gges"
      ],
      [
        "mo",
        "d"
      ],
      [
        "mo",
        "st"
      ],
      [
        "neurodiverg",
        "ence"
      ],
      [
        "de",
        "p"
      ],
      [
        "wh",
        "ere"
      ],
      [
        "lo",
        "w"
      ],
      [
        "pro",
        "fes"
      ],
      [
        "disabil",
        "ities"
      ],
      [
        "sh",
        "ips"
      ],
      [
        "ps",
        "y"
      ],
      [
        "interven",
        "tion"
      ],
      [
        "whi",
        "le"
      ],
      [
        "am",
        "ong"
      ],
      [
        "behavior",
        "s"
      ],
      [
        "behavior",
        "al"
      ],
      [
        "sy",
        "st"
      ],
      [
        "grou",
        "ps"
      ],
      [
        "tho",
        "se"
      ],
      [
        "var",
        "ious"
      ],
      [
        "sugges",
        "ted"
      ],
      [
        "profes",
        "sion"
      ],
      [
        "b",
        "ra"
      ],
      [
        "b",
        "io"
      ],
      [
        "c",
        "ed"
      ],
      [
        "e",
        "f"
      ],
      [
        "f",
        "ra"
      ],
      [
        "f",
        "ur"
      ],
      [
        "g",
        "ma"
      ],
      [
        "h",
        "u"
      ],
      [
        "k",
        "s"
      ],
      [
        "l",
        "es"
      ],
      [
        "n",
        "s"
      ],
      [
        "n",
        "or"
      ],
      [
        "n",
        "ess"
      ],
      [
        "s",
        "it"
      ],
      [
        "v",
        "ed"
      ],
      [
        "th",
        "an"
      ],
      [
        "th",
        "ro"
      ],
      [
        "al",
        "ity"
      ],
      [
        "or",
        "s"
      ],
      [
        "at",
        "t"
      ],
      [
        "ing",
        "s"
      ],
      [
        "ne",
        "t"
      ],
      [
        "neuro",
        "logical"
      ],
      [
        "le",
        "xi"
      ],
      [
        "re",
        "view"
      ],
      [
        "re",
        "port"
      ],
      [
        "st",
        "s"
      ],
      [
        "au",
        "ton"
      ],
      [
        "me",
        "mb"
      ],
      [
        "is",
        "m"
      ],
      [
        "ac",
        "t"
      ],
      [
        "ac",
        "y"
      ],
      [
        "ac",
        "com"
      ],
      [
        "ation",
        "ships"
      ],
      [
        "con",
        "ne"
      ],
      [
        "id",
        "enti"
      ],
      [
        "co",
        "mp"
      ],
      [
        "il",
        "l"
      ],
      [
        "ab",
        "led"
      ],
      [
        "wh",
        "en"
      ],
      [
        "soci",
        "ety"
      ],
      [
        "dis",
        "abled"
      ],
      [
        "with",
        "in"
      ],
      [
        "ra",
        "ther"
      ],
      [
        "si",
        "mil"
      ],
      [
        "ces",
        "s"
      ],
      [
        "iz",
        "ed"
      ],
      [
        "advoc",
        "ate"
      ],
      [
        "differ",
        "ence"
      ],
      [
        "incl",
        "us"
      ],
      [
        "rel",
        "ationships"
      ],
      [
        "spe",
        "ci"
      ],
      [
        "des",
        "ign"
      ],
      [
        "tra",
        "its"
      ],
      [
        "om",
        "y"
      ],
      [
        "incre",
        "ase"
      ],
      [
        "go",
        "als"
      ],
      [
        "tim",
        "es"
      ],
      [
        "ish",
        "ed"
      ],
      [
        "plat",
        "forms"
      ],
      [
        "righ",
        "ts"
      ],
      [
        "associ",
        "ated"
      ],
      [
        "dep",
        "end"
      ],
      [
        "bra",
        "in"
      ],
      [
        "fur",
        "ther"
      ],
      [
        "thro",
        "ugh"
      ],
      [
        "auton",
        "omy"
      ],
      [
        "memb",
        "ers"
      ],
      [
        "accom",
        "mod"
      ],
      [
        "simil",
        "ar"
      ],
      [
        "a",
        "w"
      ],
      [
        "a",
        "pe"
      ],
      [
        "a",
        "tive"
      ],
      [
        "a",
        "im"
      ],
      [
        "b",
        "i"
      ],
      [
        "b",
        "in"
      ],
      [
        "b",
        "en"
      ],
      [
        "c",
        "ul"
      ],
      [
        "d",
        "uc"
      ],
      [
        "f",
        "l"
      ],
      [
        "f",
        "y"
      ],
      [
        "h",
        "y"
      ],
      [
        "h",
        "ar"
      ],
      [
        "k",
        "er"
      ],
      [
        "l",
        "le"
      ],
      [
        "m",
        "ing"
      ],
      [
        "r",
        "en"
      ],
      [
        "r",
        "is"
      ],
      [
        "s",
        "en"
      ],
      [
        "t",
        "u"
      ],
      [
        "u",
        "di"
      ],
      [
        "u",
        "re"
      ],
      [
        "u",
        "tic"
      ],
      [
        "w",
        "al"
      ],
      [
        "in",
        "di"
      ],
      [
        "in",
        "te"
      ],
      [
        "in",
        "sti"
      ],
      [
        "en",
        "ess"
      ],
      [
        "on",
        "lin"
      ],
      [
        "al",
        "low"
      ],
      [
        "or",
        "g"
      ],
      [
        "es",
        "t"
      ],
      [
        "ro",
        "le"
      ],
      [
        "ar",
        "eness"
      ],
      [
        "ne",
        "w"
      ],
      [
        "re",
        "e"
      ],
      [
        "st",
        "udi"
      ],
      [
        "ic",
        "k"
      ],
      [
        "ic",
        "es"
      ],
      [
        "me",
        "work"
      ],
      [
        "ad",
        "d"
      ],
      [
        "ad",
        "ap"
      ],
      [
        "ation",
        "al"
      ],
      [
        "se",
        "par"
      ],
      [
        "se",
        "ver"
      ],
      [
        "con",
        "form"
      ],
      [
        "con",
        "cept"
      ],
      [
        "con",
        "cer"
      ],
      [
        "de",
        "fin"
      ],
      [
        "no",
        "w"
      ],
      [
        "ex",
        "pres"
      ],
      [
        "ex",
        "amp"
      ],
      [
        "some",
        "times"
      ],
      [
        "ir",
        "ming"
      ],
      [
        "ma",
        "tic"
      ],
      [
        "pro",
        "gra"
      ],
      [
        "emp",
        "lo"
      ],
      [
        "emp",
        "has"
      ],
      [
        "per",
        "acti"
      ],
      [
        "work",
        "ing"
      ],
      [
        "work",
        "pl"
      ],
      [
        "differ",
        "ent"
      ],
      [
        "we",
        "en"
      ],
      [
        "commun",
        "ication"
      ],
      [
        "cre",
        "ated"
      ],
      [
        "do",
        "ub"
      ],
      [
        "term",
        "s"
      ],
      [
        "person",
        "ality"
      ],
      [
        "cont",
        "ro"
      ],
      [
        "disord",
        "ers"
      ],
      [
        "sti",
        "gma"
      ],
      [
        "qu",
        "e"
      ],
      [
        "enti",
        "fic"
      ],
      [
        "des",
        "cri"
      ],
      [
        "grou",
        "p"
      ],
      [
        "aff",
        "irming"
      ],
      [
        "argu",
        "es"
      ],
      [
        "cri",
        "tic"
      ],
      [
        "dys",
        "lexi"
      ],
      [
        "cogni",
        "tion"
      ],
      [
        "cogni",
        "tive"
      ],
      [
        "publ",
        "ished"
      ],
      [
        "bo",
        "th"
      ],
      [
        "foc",
        "us"
      ],
      [
        "wo",
        "uld"
      ],
      [
        "bet",
        "ween"
      ],
      [
        "eff",
        "ec"
      ],
      [
        "ser",
        "v"
      ],
      [
        "sci",
        "entific"
      ],
      [
        "inform",
        "ation"
      ],
      [
        "profession",
        "als"
      ],
      [
        "fra",
        "mework"
      ],
      [
        "hu",
        "man"
      ],
      [
        "att",
        "emp"
      ],
      [
        "identi",
        "fy"
      ],
      [
        "aw",
        "areness"
      ],
      [
        "ape",
        "utic"
      ],
      [
        "hy",
        "peracti"
      ],
      [
        "onlin",
        "e"
      ],
      [
        "examp",
        "le"
      ],
      [
        "progra",
        "ms"
      ],
      [
        "workpl",
        "ace"
      ],
      [
        "doub",
        "le"
      ],
      [
        "dyslexi",
        "a"
      ],
      [
        "hyperacti",
        "vity"
      ],
      [
        "a",
        "mo"
      ],
      [
        "b",
        "l"
      ],
      [
        "b",
        "r"
      ],
      [
        "b",
        "u"
      ],
      [
        "b",
        "ro"
      ],
      [
        "b",
        "il"
      ],
      [
        "d",
        "s"
      ],
      [
        "d",
        "ur"
      ],
      [
        "d",
        "ay"
      ],
      [
        "e",
        "t"
      ],
      [
        "e",
        "matic"
      ],
      [
        "f",
        "i"
      ],
      [
        "f",
        "ically"
      ],
      [
        "g",
        "ing"
      ],
      [
        "h",
        "d"
      ],
      [
        "i",
        "a"
      ],
      [
        "i",
        "e"
      ],
      [
        "i",
        "an"
      ],
      [
        "i",
        "al"
      ],
      [
        "j",
        "u"
      ],
      [
        "m",
        "al"
      ],
      [
        "m",
        "as"
      ],
      [
        "m",
        "ul"
      ],
      [
        "n",
        "ational"
      ],
      [
        "o",
        "b"
      ],
      [
        "o",
        "d"
      ],
      [
        "o",
        "log"
      ],
      [
        "o",
        "logical"
      ],
      [
        "p",
        "le"
      ],
      [
        "p",
        "ut"
      ],
      [
        "p",
        "ri"
      ],
      [
        "p",
        "ath"
      ],
      [
        "r",
        "ed"
      ],
      [
        "s",
        "pre"
      ],
      [
        "t",
        "ur"
      ],
      [
        "u",
        "me"
      ],
      [
        "v",
        "ide"
      ],
      [
        "w",
        "er"
      ],
      [
        "in",
        "t"
      ],
      [
        "in",
        "to"
      ],
      [
        "in",
        "depend"
      ],
      [
        "ti",
        "tive"
      ],
      [
        "ti",
        "ple"
      ],
      [
        "an",
        "al"
      ],
      [
        "an",
        "iz"
      ],
      [
        "an",
        "xi"
      ],
      [
        "ar",
        "ing"
      ],
      [
        "le",
        "vel"
      ],
      [
        "re",
        "pe"
      ],
      [
        "re",
        "mo"
      ],
      [
        "st",
        "ar"
      ],
      [
        "for",
        "ce"
      ],
      [
        "ad",
        "hd"
      ],
      [
        "pe",
        "c"
      ],
      [
        "se",
        "en"
      ],
      [
        "co",
        "lle"
      ],
      [
        "de",
        "term"
      ],
      [
        "wh",
        "at"
      ],
      [
        "ce",
        "i"
      ],
      [
        "ther",
        "apeutic"
      ],
      [
        "us",
        "ing"
      ],
      [
        "res",
        "s"
      ],
      [
        "res",
        "pon"
      ],
      [
        "ul",
        "ation"
      ],
      [
        "inter",
        "es"
      ],
      [
        "inter",
        "ac"
      ],
      [
        "com",
        "bin"
      ],
      [
        "li",
        "ed"
      ],
      [
        "ty",
        "pe"
      ],
      [
        "ex",
        "ist"
      ],
      [
        "ma",
        "in"
      ],
      [
        "abil",
        "ity"
      ],
      [
        "cl",
        "in"
      ],
      [
        "app",
        "lied"
      ],
      [
        "ate",
        "g"
      ],
      [
        "advoc",
        "acy"
      ],
      [
        "ag",
        "ing"
      ],
      [
        "pl",
        "ay"
      ],
      [
        "we",
        "ver"
      ],
      [
        "po",
        "si"
      ],
      [
        "po",
        "wer"
      ],
      [
        "gro",
        "w"
      ],
      [
        "care",
        "er"
      ],
      [
        "arg",
        "e"
      ],
      [
        "sho",
        "w"
      ],
      [
        "empath",
        "ize"
      ],
      [
        "qu",
        "es"
      ],
      [
        "find",
        "ings"
      ],
      [
        "age",
        "ment"
      ],
      [
        "cer",
        "tain"
      ],
      [
        "jo",
        "b"
      ],
      [
        "function",
        "ing"
      ],
      [
        "pon",
        "ents"
      ],
      [
        "tre",
        "at"
      ],
      [
        "year",
        "s"
      ],
      [
        "uni",
        "que"
      ],
      [
        "therap",
        "y"
      ],
      [
        "difficul",
        "t"
      ],
      [
        "consider",
        "ed"
      ],
      [
        "ho",
        "wever"
      ],
      [
        "ye",
        "es"
      ],
      [
        "thin",
        "king"
      ],
      [
        "artic",
        "les"
      ],
      [
        "ass",
        "ess"
      ],
      [
        "reg",
        "ard"
      ],
      [
        "child",
        "ren"
      ],
      [
        "accept",
        "ance"
      ],
      [
        "syst",
        "ematic"
      ],
      [
        "net",
        "work"
      ],
      [
        "speci",
        "fically"
      ],
      [
        "accommod",
        "ations"
      ],
      [
        "similar",
        "ly"
      ],
      [
        "har",
        "m"
      ],
      [
        "wal",
        "ker"
      ],
      [
        "indi",
        "c"
      ],
      [
        "org",
        "aniz"
      ],
      [
        "studi",
        "es"
      ],
      [
        "adap",
        "tive"
      ],
      [
        "concer",
        "ns"
      ],
      [
        "now",
        "led"
      ],
      [
        "emplo",
        "yees"
      ],
      [
        "effec",
        "ts"
      ],
      [
        "serv",
        "ices"
      ],
      [
        "bl",
        "ume"
      ],
      [
        "dur",
        "ing"
      ],
      [
        "mul",
        "tiple"
      ],
      [
        "spre",
        "ad"
      ],
      [
        "independ",
        "ent"
      ],
      [
        "anxi",
        "ety"
      ],
      [
        "repe",
        "titive"
      ],
      [
        "determ",
        "in"
      ],
      [
        "a",
        "k"
      ],
      [
        "a",
        "ti"
      ],
      [
        "a",
        "me"
      ],
      [
        "a",
        "il"
      ],
      [
        "a",
        "ir"
      ],
      [
        "a",
        "ign"
      ],
      [
        "b",
        "er"
      ],
      [
        "b",
        "ed"
      ],
      [
        "c",
        "or"
      ],
      [
        "c",
        "all"
      ],
      [
        "c",
        "ord"
      ],
      [
        "c",
        "amp"
      ],
      [
        "c",
        "cess"
      ],
      [
        "d",
        "y"
      ],
      [
        "e",
        "mo"
      ],
      [
        "e",
        "ach"
      ],
      [
        "e",
        "ct"
      ],
      [
        "e",
        "vid"
      ],
      [
        "f",
        "und"
      ],
      [
        "f",
        "ir"
      ],
      [
        "f",
        "ace"
      ],
      [
        "g",
        "r"
      ],
      [
        "g",
        "u"
      ],
      [
        "g",
        "en"
      ],
      [
        "g",
        "re"
      ],
      [
        "g",
        "ated"
      ],
      [
        "g",
        "ain"
      ],
      [
        "h",
        "er"
      ],
      [
        "j",
        "ud"
      ],
      [
        "l",
        "a"
      ],
      [
        "l",
        "ong"
      ],
      [
        "l",
        "arge"
      ],
      [
        "m",
        "y"
      ],
      [
        "m",
        "is"
      ],
      [
        "m",
        "ary"
      ],
      [
        "n",
        "ers"
      ],
      [
        "n",
        "ick"
      ],
      [
        "o",
        "th"
      ],
      [
        "p",
        "h"
      ],
      [
        "p",
        "at"
      ],
      [
        "p",
        "ac"
      ],
      [
        "p",
        "op"
      ],
      [
        "p",
        "us"
      ],
      [
        "q",
        "ual"
      ],
      [
        "r",
        "on"
      ],
      [
        "r",
        "an"
      ],
      [
        "s",
        "es"
      ],
      [
        "s",
        "ch"
      ],
      [
        "s",
        "pac"
      ],
      [
        "t",
        "wo"
      ],
      [
        "u",
        "m"
      ],
      [
        "u",
        "de"
      ],
      [
        "v",
        "al"
      ],
      [
        "v",
        "ation"
      ],
      [
        "th",
        "ing"
      ],
      [
        "in",
        "n"
      ],
      [
        "in",
        "v"
      ],
      [
        "in",
        "ves"
      ],
      [
        "er",
        "ally"
      ],
      [
        "ti",
        "gated"
      ],
      [
        "en",
        "tic"
      ],
      [
        "en",
        "vi"
      ],
      [
        "en",
        "ced"
      ],
      [
        "an",
        "y"
      ],
      [
        "al",
        "ist"
      ],
      [
        "ar",
        "i"
      ],
      [
        "ar",
        "ed"
      ],
      [
        "ent",
        "ation"
      ],
      [
        "as",
        "h"
      ],
      [
        "as",
        "t"
      ],
      [
        "tion",
        "al"
      ],
      [
        "neuro",
        "developmental"
      ],
      [
        "neuro",
        "cognitive"
      ],
      [
        "le",
        "ad"
      ],
      [
        "re",
        "move"
      ],
      [
        "st",
        "aff"
      ],
      [
        "ch",
        "an"
      ],
      [
        "ch",
        "no"
      ],
      [
        "au",
        "th"
      ],
      [
        "for",
        "t"
      ],
      [
        "is",
        "tic"
      ],
      [
        "be",
        "g"
      ],
      [
        "ac",
        "ces"
      ],
      [
        "se",
        "t"
      ],
      [
        "su",
        "ccess"
      ],
      [
        "con",
        "cep"
      ],
      [
        "con",
        "fer"
      ],
      [
        "co",
        "un"
      ],
      [
        "co",
        "uld"
      ],
      [
        "de",
        "pres"
      ],
      [
        "neurodiversity",
        "affirming"
      ],
      [
        "dis",
        "c"
      ],
      [
        "wi",
        "k"
      ],
      [
        "res",
        "sing"
      ],
      [
        "ort",
        "ant"
      ],
      [
        "ra",
        "is"
      ],
      [
        "si",
        "ble"
      ],
      [
        "si",
        "bil"
      ],
      [
        "vi",
        "sts"
      ],
      [
        "inter",
        "national"
      ],
      [
        "com",
        "es"
      ],
      [
        "li",
        "ving"
      ],
      [
        "li",
        "fe"
      ],
      [
        "ex",
        "t"
      ],
      [
        "ut",
        "e"
      ],
      [
        "adv",
        "ant"
      ],
      [
        "ur",
        "al"
      ],
      [
        "abil",
        "ities"
      ],
      [
        "pro",
        "ble"
      ],
      [
        "pro",
        "vid"
      ],
      [
        "pro",
        "ponents"
      ],
      [
        "iz",
        "ing"
      ],
      [
        "iz",
        "ation"
      ],
      [
        "per",
        "form"
      ],
      [
        "advoc",
        "ated"
      ],
      [
        "ag",
        "ain"
      ],
      [
        "ach",
        "ie"
      ],
      [
        "par",
        "t"
      ],
      [
        "par",
        "tic"
      ],
      [
        "pers",
        "pec"
      ],
      [
        "po",
        "int"
      ],
      [
        "ten",
        "d"
      ],
      [
        "str",
        "uc"
      ],
      [
        "typ",
        "es"
      ],
      [
        "appro",
        "pri"
      ],
      [
        "em",
        "s"
      ],
      [
        "te",
        "chno"
      ],
      [
        "need",
        "ing"
      ],
      [
        "cont",
        "act"
      ],
      [
        "out",
        "comes"
      ],
      [
        "sho",
        "wn"
      ],
      [
        "develop",
        "ed"
      ],
      [
        "sti",
        "ll"
      ],
      [
        "imp",
        "ortant"
      ],
      [
        "pres",
        "entation"
      ],
      [
        "spe",
        "a"
      ],
      [
        "ack",
        "nowled"
      ],
      [
        "cent",
        "er"
      ],
      [
        "fe",
        "el"
      ],
      [
        "publ",
        "ic"
      ],
      [
        "lear",
        "ning"
      ],
      [
        "lear",
        "ners"
      ],
      [
        "bet",
        "ter"
      ],
      [
        "acti",
        "vists"
      ],
      [
        "cur",
        "r"
      ],
      [
        "ho",
        "w"
      ],
      [
        "pr",
        "ide"
      ],
      [
        "sa",
        "me"
      ],
      [
        "artic",
        "le"
      ],
      [
        "assi",
        "st"
      ],
      [
        "psy",
        "ch"
      ],
      [
        "psy",
        "cho"
      ],
      [
        "bio",
        "medical"
      ],
      [
        "ef",
        "it"
      ],
      [
        "nor",
        "mal"
      ],
      [
        "ness",
        "es"
      ],
      [
        "sit",
        "u"
      ],
      [
        "sit",
        "es"
      ],
      [
        "report",
        "ed"
      ],
      [
        "conne",
        "ct"
      ],
      [
        "inclus",
        "ive"
      ],
      [
        "inclus",
        "ion"
      ],
      [
        "ben",
        "efit"
      ],
      [
        "ris",
        "ks"
      ],
      [
        "inte",
        "gr"
      ],
      [
        "insti",
        "tu"
      ],
      [
        "sever",
        "al"
      ],
      [
        "contro",
        "vers"
      ],
      [
        "descri",
        "bed"
      ],
      [
        "bu",
        "ild"
      ],
      [
        "bro",
        "ad"
      ],
      [
        "ju",
        "st"
      ],
      [
        "mas",
        "king"
      ],
      [
        "vide",
        "o"
      ],
      [
        "star",
        "ted"
      ],
      [
        "cei",
        "ved"
      ],
      [
        "combin",
        "ation"
      ],
      [
        "clin",
        "ical"
      ],
      [
        "show",
        "ed"
      ],
      [
        "regard",
        "ing"
      ],
      [
        "indic",
        "ated"
      ],
      [
        "organiz",
        "ations"
      ],
      [
        "camp",
        "aign"
      ],
      [
        "emo",
        "tional"
      ],
      [
        "evid",
        "ence"
      ],
      [
        "gen",
        "erally"
      ],
      [
        "oth",
        "ers"
      ],
      [
        "pus",
        "h"
      ],
      [
        "ron",
        "ment"
      ],
      [
        "spac",
        "es"
      ],
      [
        "inves",
        "tigated"
      ],
      [
        "envi",
        "ronment"
      ],
      [
        "depres",
        "sion"
      ],
      [
        "proble",
        "m"
      ],
      [
        "again",
        "st"
      ],
      [
        "appropri",
        "ate"
      ],
      [
        "techno",
        "log"
      ],
      [
        "a",
        "v"
      ],
      [
        "a",
        "mental"
      ],
      [
        "b",
        "ar"
      ],
      [
        "b",
        "is"
      ],
      [
        "b",
        "log"
      ],
      [
        "b",
        "ack"
      ],
      [
        "c",
        "u"
      ],
      [
        "c",
        "ing"
      ],
      [
        "c",
        "is"
      ],
      [
        "c",
        "ted"
      ],
      [
        "c",
        "lear"
      ],
      [
        "c",
        "amo"
      ],
      [
        "c",
        "ateg"
      ],
      [
        "d",
        "er"
      ],
      [
        "d",
        "am"
      ],
      [
        "e",
        "ch"
      ],
      [
        "e",
        "man"
      ],
      [
        "e",
        "fic"
      ],
      [
        "f",
        "le"
      ],
      [
        "f",
        "all"
      ],
      [
        "f",
        "am"
      ],
      [
        "f",
        "act"
      ],
      [
        "f",
        "ree"
      ],
      [
        "f",
        "ash"
      ],
      [
        "g",
        "i"
      ],
      [
        "g",
        "le"
      ],
      [
        "g",
        "ative"
      ],
      [
        "h",
        "on"
      ],
      [
        "h",
        "ad"
      ],
      [
        "h",
        "ir"
      ],
      [
        "h",
        "ist"
      ],
      [
        "i",
        "x"
      ],
      [
        "i",
        "at"
      ],
      [
        "i",
        "re"
      ],
      [
        "j",
        "ur"
      ],
      [
        "k",
        "ed"
      ],
      [
        "k",
        "ill"
      ],
      [
        "l",
        "d"
      ],
      [
        "l",
        "er"
      ],
      [
        "l",
        "an"
      ],
      [
        "l",
        "ic"
      ],
      [
        "l",
        "ess"
      ],
      [
        "l",
        "low"
      ],
      [
        "m",
        "en"
      ],
      [
        "m",
        "at"
      ],
      [
        "m",
        "it"
      ],
      [
        "m",
        "ad"
      ],
      [
        "m",
        "mary"
      ],
      [
        "m",
        "ix"
      ],
      [
        "n",
        "d"
      ],
      [
        "n",
        "at"
      ],
      [
        "n",
        "ach"
      ],
      [
        "o",
        "ur"
      ],
      [
        "o",
        "ugh"
      ],
      [
        "p",
        "i"
      ],
      [
        "p",
        "an"
      ],
      [
        "p",
        "or"
      ],
      [
        "p",
        "and"
      ],
      [
        "p",
        "ical"
      ],
      [
        "p",
        "ur"
      ],
      [
        "p",
        "ure"
      ],
      [
        "p",
        "harm"
      ],
      [
        "p",
        "ati"
      ],
      [
        "r",
        "ate"
      ],
      [
        "r",
        "educ"
      ],
      [
        "r",
        "um"
      ],
      [
        "r",
        "ast"
      ],
      [
        "s",
        "s"
      ],
      [
        "s",
        "ed"
      ],
      [
        "s",
        "is"
      ],
      [
        "s",
        "mo"
      ],
      [
        "s",
        "he"
      ],
      [
        "s",
        "incl"
      ],
      [
        "s",
        "ory"
      ],
      [
        "s",
        "ically"
      ],
      [
        "s",
        "cho"
      ],
      [
        "s",
        "kill"
      ],
      [
        "t",
        "es"
      ],
      [
        "u",
        "th"
      ],
      [
        "u",
        "res"
      ],
      [
        "u",
        "mb"
      ],
      [
        "u",
        "fl"
      ],
      [
        "v",
        "as"
      ],
      [
        "v",
        "ersity"
      ],
      [
        "v",
        "ant"
      ],
      [
        "w",
        "r"
      ],
      [
        "w",
        "ard"
      ],
      [
        "w",
        "ill"
      ],
      [
        "y",
        "pical"
      ],
      [
        "th",
        "us"
      ],
      [
        "in",
        "e"
      ],
      [
        "in",
        "u"
      ],
      [
        "in",
        "st"
      ],
      [
        "in",
        "ci"
      ],
      [
        "in",
        "no"
      ],
      [
        "in",
        "tr"
      ],
      [
        "in",
        "cor"
      ],
      [
        "in",
        "her"
      ],
      [
        "in",
        "sically"
      ],
      [
        "ti",
        "t"
      ],
      [
        "ti",
        "z"
      ],
      [
        "ti",
        "me"
      ],
      [
        "ti",
        "ally"
      ],
      [
        "ti",
        "vity"
      ],
      [
        "di",
        "st"
      ],
      [
        "di",
        "ag"
      ],
      [
        "es",
        "pe"
      ],
      [
        "ro",
        "ve"
      ],
      [
        "ro",
        "om"
      ],
      [
        "ro",
        "ber"
      ],
      [
        "ro",
        "ss"
      ],
      [
        "at",
        "ypical"
      ],
      [
        "ar",
        "is"
      ],
      [
        "ne",
        "cess"
      ],
      [
        "ne",
        "eman"
      ],
      [
        "ne",
        "gative"
      ],
      [
        "it",
        "e"
      ],
      [
        "as",
        "ing"
      ],
      [
        "neuro",
        "sci"
      ],
      [
        "neuro",
        "conform"
      ],
      [
        "of",
        "fer"
      ],
      [
        "to",
        "o"
      ],
      [
        "to",
        "ol"
      ],
      [
        "to",
        "ms"
      ],
      [
        "to",
        "ler"
      ],
      [
        "to",
        "ward"
      ],
      [
        "le",
        "ment"
      ],
      [
        "le",
        "vant"
      ],
      [
        "re",
        "ad"
      ],
      [
        "re",
        "ce"
      ],
      [
        "re",
        "forms"
      ],
      [
        "re",
        "fer"
      ],
      [
        "re",
        "cognition"
      ],
      [
        "re",
        "presentation"
      ],
      [
        "re",
        "levant"
      ],
      [
        "st",
        "an"
      ],
      [
        "st",
        "ress"
      ],
      [
        "ve",
        "y"
      ],
      [
        "so",
        "m"
      ],
      [
        "ic",
        "s"
      ],
      [
        "ic",
        "t"
      ],
      [
        "ic",
        "acy"
      ],
      [
        "ic",
        "ian"
      ],
      [
        "for",
        "e"
      ],
      [
        "is",
        "su"
      ],
      [
        "is",
        "ory"
      ],
      [
        "tic",
        "al"
      ],
      [
        "be",
        "l"
      ],
      [
        "ad",
        "op"
      ],
      [
        "ad",
        "ul"
      ],
      [
        "ad",
        "just"
      ],
      [
        "ac",
        "ological"
      ],
      [
        "ac",
        "cord"
      ],
      [
        "ac",
        "ross"
      ],
      [
        "pe",
        "er"
      ],
      [
        "pe",
        "ct"
      ],
      [
        "un",
        "t"
      ],
      [
        "un",
        "interes"
      ],
      [
        "se",
        "e"
      ],
      [
        "su",
        "e"
      ],
      [
        "su",
        "r"
      ],
      [
        "su",
        "mmary"
      ],
      [
        "ci",
        "es"
      ],
      [
        "ci",
        "ally"
      ],
      [
        "con",
        "si"
      ],
      [
        "con",
        "dition"
      ],
      [
        "con",
        "vers"
      ],
      [
        "con",
        "duc"
      ],
      [
        "con",
        "struc"
      ],
      [
        "con",
        "ceived"
      ],
      [
        "id",
        "ing"
      ],
      [
        "mo",
        "ur"
      ],
      [
        "co",
        "ord"
      ],
      [
        "ly",
        "ing"
      ],
      [
        "neurodiverg",
        "ences"
      ],
      [
        "ter",
        "n"
      ],
      [
        "ab",
        "l"
      ],
      [
        "ab",
        "use"
      ],
      [
        "autistic",
        "s"
      ],
      [
        "wh",
        "ite"
      ],
      [
        "are",
        "as"
      ],
      [
        "mp",
        "toms"
      ],
      [
        "soci",
        "et"
      ],
      [
        "us",
        "sion"
      ],
      [
        "dis",
        "co"
      ],
      [
        "dis",
        "advant"
      ],
      [
        "no",
        "tions"
      ],
      [
        "no",
        "sis"
      ],
      [
        "ha",
        "pp"
      ],
      [
        "ha",
        "ving"
      ],
      [
        "res",
        "our"
      ],
      [
        "ul",
        "ar"
      ],
      [
        "ul",
        "si"
      ],
      [
        "ual",
        "ly"
      ],
      [
        "social",
        "ly"
      ],
      [
        "social",
        "communication"
      ],
      [
        "inter",
        "view"
      ],
      [
        "inter",
        "pre"
      ],
      [
        "com",
        "fort"
      ],
      [
        "li",
        "st"
      ],
      [
        "li",
        "min"
      ],
      [
        "li",
        "mit"
      ],
      [
        "ex",
        "cl"
      ],
      [
        "some",
        "thing"
      ],
      [
        "lo",
        "o"
      ],
      [
        "form",
        "ing"
      ],
      [
        "form",
        "ation"
      ],
      [
        "ma",
        "ke"
      ],
      [
        "adv",
        "ance"
      ],
      [
        "adv",
        "isory"
      ],
      [
        "wor",
        "sen"
      ],
      [
        "wor",
        "ld"
      ],
      [
        "cl",
        "ass"
      ],
      [
        "cl",
        "assi"
      ],
      [
        "pro",
        "mo"
      ],
      [
        "pro",
        "duc"
      ],
      [
        "not",
        "es"
      ],
      [
        "support",
        "s"
      ],
      [
        "support",
        "ed"
      ],
      [
        "eng",
        "agement"
      ],
      [
        "movement",
        "s"
      ],
      [
        "per",
        "cep"
      ],
      [
        "per",
        "vas"
      ],
      [
        "igh",
        "t"
      ],
      [
        "advoc",
        "ating"
      ],
      [
        "work",
        "force"
      ],
      [
        "man",
        "agement"
      ],
      [
        "ag",
        "ree"
      ],
      [
        "comm",
        "on"
      ],
      [
        "par",
        "tially"
      ],
      [
        "ri",
        "ers"
      ],
      [
        "ri",
        "but"
      ],
      [
        "sel",
        "ing"
      ],
      [
        "pl",
        "es"
      ],
      [
        "we",
        "ak"
      ],
      [
        "medic",
        "ine"
      ],
      [
        "po",
        "st"
      ],
      [
        "incl",
        "ude"
      ],
      [
        "educ",
        "ate"
      ],
      [
        "ke",
        "y"
      ],
      [
        "alth",
        "ough"
      ],
      [
        "str",
        "ong"
      ],
      [
        "str",
        "ug"
      ],
      [
        "str",
        "ateg"
      ],
      [
        "do",
        "es"
      ],
      [
        "do",
        "ing"
      ],
      [
        "do",
        "wn"
      ],
      [
        "gro",
        "und"
      ],
      [
        "view",
        "s"
      ],
      [
        "view",
        "ed"
      ],
      [
        "view",
        "where"
      ],
      [
        "ap",
        "pe"
      ],
      [
        "em",
        "erg"
      ],
      [
        "cont",
        "ext"
      ],
      [
        "cont",
        "rast"
      ],
      [
        "cont",
        "inu"
      ],
      [
        "there",
        "fore"
      ],
      [
        "ct",
        "rum"
      ],
      [
        "non",
        "disabled"
      ],
      [
        "develop",
        "ment"
      ],
      [
        "ys",
        "is"
      ],
      [
        "ys",
        "ician"
      ],
      [
        "like",
        "ly"
      ],
      [
        "empath",
        "izing"
      ],
      [
        "found",
        "ation"
      ],
      [
        "challeng",
        "e"
      ],
      [
        "ist",
        "s"
      ],
      [
        "imp",
        "rove"
      ],
      [
        "imp",
        "lement"
      ],
      [
        "pre",
        "fer"
      ],
      [
        "spe",
        "ech"
      ],
      [
        "spe",
        "ctrum"
      ],
      [
        "sy",
        "mb"
      ],
      [
        "sy",
        "mptoms"
      ],
      [
        "ide",
        "a"
      ],
      [
        "self",
        "identify"
      ],
      [
        "experi",
        "ence"
      ],
      [
        "experi",
        "enced"
      ],
      [
        "help",
        "ing"
      ],
      [
        "aff",
        "ect"
      ],
      [
        "ol",
        "s"
      ],
      [
        "tra",
        "dition"
      ],
      [
        "find",
        "ing"
      ],
      [
        "argu",
        "e"
      ],
      [
        "argu",
        "ing"
      ],
      [
        "port",
        "smo"
      ],
      [
        "tho",
        "ugh"
      ],
      [
        "consid",
        "ers"
      ],
      [
        "defic",
        "its"
      ],
      [
        "well",
        "being"
      ],
      [
        "jo",
        "h"
      ],
      [
        "lin",
        "ked"
      ],
      [
        "mil",
        "ton"
      ],
      [
        "over",
        "loo"
      ],
      [
        "sing",
        "er"
      ],
      [
        "var",
        "i"
      ],
      [
        "way",
        "s"
      ],
      [
        "incre",
        "asing"
      ],
      [
        "addition",
        "ally"
      ],
      [
        "bo",
        "dy"
      ],
      [
        "foc",
        "used"
      ],
      [
        "tr",
        "an"
      ],
      [
        "tre",
        "ated"
      ],
      [
        "tre",
        "ating"
      ],
      [
        "tain",
        "ing"
      ],
      [
        "uni",
        "vers"
      ],
      [
        "therap",
        "ies"
      ],
      [
        "therap",
        "ists"
      ],
      [
        "difficul",
        "ty"
      ],
      [
        "difficul",
        "ties"
      ],
      [
        "plat",
        "form"
      ],
      [
        "related",
        "ly"
      ],
      [
        "cur",
        "ed"
      ],
      [
        "eff",
        "icacy"
      ],
      [
        "ful",
        "ly"
      ],
      [
        "min",
        "ute"
      ],
      [
        "pr",
        "ac"
      ],
      [
        "pr",
        "inci"
      ],
      [
        "sa",
        "id"
      ],
      [
        "ye",
        "t"
      ],
      [
        "thin",
        "k"
      ],
      [
        "inform",
        "ed"
      ],
      [
        "reg",
        "ulation"
      ],
      [
        "accept",
        "able"
      ],
      [
        "academic",
        "s"
      ],
      [
        "where",
        "as"
      ],
      [
        "syst",
        "ems"
      ],
      [
        "profession",
        "al"
      ],
      [
        "bio",
        "logical"
      ],
      [
        "nor",
        "ms"
      ],
      [
        "neurological",
        "ly"
      ],
      [
        "review",
        "s"
      ],
      [
        "speci",
        "alist"
      ],
      [
        "ben",
        "efic"
      ],
      [
        "cul",
        "tu"
      ],
      [
        "cul",
        "tur"
      ],
      [
        "sen",
        "sory"
      ],
      [
        "allow",
        "s"
      ],
      [
        "est",
        "abl"
      ],
      [
        "add",
        "ed"
      ],
      [
        "add",
        "ressing"
      ],
      [
        "sever",
        "e"
      ],
      [
        "concept",
        "ual"
      ],
      [
        "defin",
        "i"
      ],
      [
        "expres",
        "sion"
      ],
      [
        "emphas",
        "is"
      ],
      [
        "emphas",
        "ized"
      ],
      [
        "contro",
        "l"
      ],
      [
        "descri",
        "be"
      ],
      [
        "critic",
        "ism"
      ],
      [
        "human",
        "ity"
      ],
      [
        "attemp",
        "ted"
      ],
      [
        "attemp",
        "ting"
      ],
      [
        "amo",
        "unt"
      ],
      [
        "fi",
        "ed"
      ],
      [
        "path",
        "ological"
      ],
      [
        "tur",
        "ning"
      ],
      [
        "anal",
        "y"
      ],
      [
        "anal",
        "ysis"
      ],
      [
        "remo",
        "ved"
      ],
      [
        "colle",
        "ge"
      ],
      [
        "interes",
        "ts"
      ],
      [
        "interac",
        "tion"
      ],
      [
        "interac",
        "tions"
      ],
      [
        "play",
        "ing"
      ],
      [
        "posi",
        "tive"
      ],
      [
        "grow",
        "ing"
      ],
      [
        "ques",
        "tion"
      ],
      [
        "ques",
        "tions"
      ],
      [
        "treat",
        "ment"
      ],
      [
        "harm",
        "ful"
      ],
      [
        "determin",
        "ing"
      ],
      [
        "fund",
        "amental"
      ],
      [
        "fir",
        "st"
      ],
      [
        "gu",
        "age"
      ],
      [
        "gre",
        "w"
      ],
      [
        "jud",
        "y"
      ],
      [
        "la",
        "bel"
      ],
      [
        "large",
        "ly"
      ],
      [
        "ph",
        "ysician"
      ],
      [
        "pop",
        "ulation"
      ],
      [
        "sch",
        "iz"
      ],
      [
        "inn",
        "ate"
      ],
      [
        "inv",
        "ol"
      ],
      [
        "any",
        "one"
      ],
      [
        "chan",
        "ging"
      ],
      [
        "auth",
        "entic"
      ],
      [
        "beg",
        "un"
      ],
      [
        "acces",
        "sibil"
      ],
      [
        "set",
        "ting"
      ],
      [
        "coun",
        "seling"
      ],
      [
        "disc",
        "ussion"
      ],
      [
        "wik",
        "i"
      ],
      [
        "rais",
        "ed"
      ],
      [
        "provid",
        "ed"
      ],
      [
        "perform",
        "ance"
      ],
      [
        "achie",
        "ve"
      ],
      [
        "partic",
        "ular"
      ],
      [
        "perspec",
        "tive"
      ],
      [
        "tend",
        "ed"
      ],
      [
        "acknowled",
        "ging"
      ],
      [
        "psych",
        "iat"
      ],
      [
        "psycho",
        "education"
      ],
      [
        "situ",
        "ations"
      ],
      [
        "integr",
        "ation"
      ],
      [
        "institu",
        "tions"
      ],
      [
        "controvers",
        "ial"
      ],
      [
        "campaign",
        "s"
      ],
      [
        "technolog",
        "y"
      ],
      [
        "bar",
        "riers"
      ],
      [
        "blog",
        "s"
      ],
      [
        "camo",
        "ufl"
      ],
      [
        "categ",
        "or"
      ],
      [
        "dam",
        "ian"
      ],
      [
        "free",
        "ly"
      ],
      [
        "fash",
        "ion"
      ],
      [
        "gi",
        "ving"
      ],
      [
        "hon",
        "ors"
      ],
      [
        "hir",
        "ing"
      ],
      [
        "lan",
        "guage"
      ],
      [
        "mix",
        "ed"
      ],
      [
        "nat",
        "ural"
      ],
      [
        "nach",
        "man"
      ],
      [
        "pure",
        "ly"
      ],
      [
        "pharm",
        "acological"
      ],
      [
        "sincl",
        "air"
      ],
      [
        "skill",
        "s"
      ],
      [
        "inno",
        "vation"
      ],
      [
        "intr",
        "insically"
      ],
      [
        "incor",
        "por"
      ],
      [
        "inher",
        "ent"
      ],
      [
        "diag",
        "nosis"
      ],
      [
        "espe",
        "cially"
      ],
      [
        "neurosci",
        "ence"
      ],
      [
        "neuroconform",
        "ing"
      ],
      [
        "rece",
        "ive"
      ],
      [
        "issu",
        "es"
      ],
      [
        "adop",
        "ted"
      ],
      [
        "adul",
        "ts"
      ],
      [
        "adjust",
        "ments"
      ],
      [
        "accord",
        "ing"
      ],
      [
        "uninteres",
        "ted"
      ],
      [
        "conduc",
        "ted"
      ],
      [
        "coord",
        "in"
      ],
      [
        "societ",
        "al"
      ],
      [
        "resour",
        "ces"
      ],
      [
        "advance",
        "ments"
      ],
      [
        "worsen",
        "ing"
      ],
      [
        "class",
        "room"
      ],
      [
        "classi",
        "fied"
      ],
      [
        "produc",
        "tivity"
      ],
      [
        "percep",
        "tion"
      ],
      [
        "pervas",
        "ive"
      ],
      [
        "weak",
        "nesses"
      ],
      [
        "strug",
        "gle"
      ],
      [
        "strateg",
        "ies"
      ],
      [
        "down",
        "playing"
      ],
      [
        "implement",
        "ation"
      ],
      [
        "portsmo",
        "uth"
      ],
      [
        "princi",
        "ples"
      ],
      [
        "benefic",
        "ial"
      ],
      [
        "cultu",
        "res"
      ],
      [
        "fundamental",
        "ly"
      ],
      [
        "physician",
        "s"
      ],
      [
        "accessibil",
        "ity"
      ],
      [
        "psychiat",
        "r"
      ],
      [
        "camoufl",
        "aging"
      ],
      [
        "a",
        "f"
      ],
      [
        "a",
        "ro"
      ],
      [
        "a",
        "ver"
      ],
      [
        "a",
        "way"
      ],
      [
        "a",
        "vers"
      ],
      [
        "a",
        "ire"
      ],
      [
        "a",
        "iding"
      ],
      [
        "a",
        "analysis"
      ],
      [
        "b",
        "j"
      ],
      [
        "b",
        "an"
      ],
      [
        "b",
        "ad"
      ],
      [
        "b",
        "erg"
      ],
      [
        "b",
        "ul"
      ],
      [
        "b",
        "lo"
      ],
      [
        "b",
        "all"
      ],
      [
        "b",
        "ag"
      ],
      [
        "b",
        "ri"
      ],
      [
        "b",
        "ates"
      ],
      [
        "b",
        "lack"
      ],
      [
        "b",
        "est"
      ],
      [
        "b",
        "sites"
      ],
      [
        "c",
        "a"
      ],
      [
        "c",
        "s"
      ],
      [
        "c",
        "y"
      ],
      [
        "c",
        "al"
      ],
      [
        "c",
        "tions"
      ],
      [
        "c",
        "ore"
      ],
      [
        "c",
        "end"
      ],
      [
        "c",
        "aring"
      ],
      [
        "c",
        "ame"
      ],
      [
        "d",
        "r"
      ],
      [
        "d",
        "w"
      ],
      [
        "d",
        "en"
      ],
      [
        "d",
        "on"
      ],
      [
        "d",
        "le"
      ],
      [
        "d",
        "ra"
      ],
      [
        "d",
        "oc"
      ],
      [
        "d",
        "ri"
      ],
      [
        "d",
        "ence"
      ],
      [
        "d",
        "ub"
      ],
      [
        "d",
        "one"
      ],
      [
        "d",
        "ary"
      ],
      [
        "d",
        "ness"
      ],
      [
        "e",
        "v"
      ],
      [
        "e",
        "th"
      ],
      [
        "e",
        "le"
      ],
      [
        "e",
        "ad"
      ],
      [
        "e",
        "con"
      ],
      [
        "e",
        "ther"
      ],
      [
        "e",
        "ven"
      ],
      [
        "e",
        "ps"
      ],
      [
        "e",
        "ver"
      ],
      [
        "e",
        "ating"
      ],
      [
        "e",
        "qu"
      ],
      [
        "e",
        "ye"
      ],
      [
        "e",
        "qual"
      ],
      [
        "e",
        "pi"
      ],
      [
        "e",
        "limin"
      ],
      [
        "f",
        "t"
      ],
      [
        "f",
        "al"
      ],
      [
        "f",
        "ed"
      ],
      [
        "f",
        "ers"
      ],
      [
        "f",
        "ac"
      ],
      [
        "f",
        "id"
      ],
      [
        "f",
        "ig"
      ],
      [
        "f",
        "ri"
      ],
      [
        "f",
        "ew"
      ],
      [
        "f",
        "ist"
      ],
      [
        "f",
        "its"
      ],
      [
        "f",
        "ting"
      ],
      [
        "f",
        "lexi"
      ],
      [
        "f",
        "ail"
      ],
      [
        "f",
        "ran"
      ],
      [
        "g",
        "s"
      ],
      [
        "g",
        "ed"
      ],
      [
        "g",
        "ap"
      ],
      [
        "g",
        "ive"
      ],
      [
        "g",
        "end"
      ],
      [
        "g",
        "ree"
      ],
      [
        "g",
        "inn"
      ],
      [
        "h",
        "t"
      ],
      [
        "h",
        "in"
      ],
      [
        "h",
        "an"
      ],
      [
        "h",
        "ers"
      ],
      [
        "h",
        "oc"
      ],
      [
        "h",
        "ol"
      ],
      [
        "h",
        "ard"
      ],
      [
        "h",
        "ren"
      ],
      [
        "i",
        "f"
      ],
      [
        "i",
        "di"
      ],
      [
        "i",
        "ly"
      ],
      [
        "i",
        "als"
      ],
      [
        "i",
        "ally"
      ],
      [
        "i",
        "fer"
      ],
      [
        "i",
        "ble"
      ],
      [
        "i",
        "pan"
      ],
      [
        "j",
        "en"
      ],
      [
        "j",
        "as"
      ],
      [
        "j",
        "im"
      ],
      [
        "j",
        "ect"
      ],
      [
        "k",
        "in"
      ],
      [
        "k",
        "en"
      ],
      [
        "k",
        "es"
      ],
      [
        "k",
        "no"
      ],
      [
        "k",
        "assi"
      ],
      [
        "k",
        "nowled"
      ],
      [
        "l",
        "v"
      ],
      [
        "l",
        "and"
      ],
      [
        "l",
        "ar"
      ],
      [
        "l",
        "it"
      ],
      [
        "l",
        "ent"
      ],
      [
        "l",
        "ve"
      ],
      [
        "l",
        "ate"
      ],
      [
        "l",
        "ay"
      ],
      [
        "l",
        "one"
      ],
      [
        "l",
        "ication"
      ],
      [
        "l",
        "ight"
      ],
      [
        "m",
        "u"
      ],
      [
        "m",
        "es"
      ],
      [
        "m",
        "ed"
      ],
      [
        "m",
        "id"
      ],
      [
        "m",
        "ut"
      ],
      [
        "m",
        "assi"
      ],
      [
        "m",
        "ism"
      ],
      [
        "m",
        "ia"
      ],
      [
        "m",
        "ight"
      ],
      [
        "n",
        "t"
      ],
      [
        "n",
        "y"
      ],
      [
        "n",
        "er"
      ],
      [
        "n",
        "ed"
      ],
      [
        "n",
        "ual"
      ],
      [
        "n",
        "am"
      ],
      [
        "n",
        "ame"
      ],
      [
        "n",
        "alist"
      ],
      [
        "n",
        "umb"
      ],
      [
        "n",
        "aire"
      ],
      [
        "n",
        "ifer"
      ],
      [
        "o",
        "in"
      ],
      [
        "o",
        "ing"
      ],
      [
        "o",
        "us"
      ],
      [
        "o",
        "aff"
      ],
      [
        "o",
        "wn"
      ],
      [
        "o",
        "types"
      ],
      [
        "o",
        "sed"
      ],
      [
        "o",
        "iding"
      ],
      [
        "p",
        "en"
      ],
      [
        "p",
        "al"
      ],
      [
        "p",
        "ed"
      ],
      [
        "p",
        "as"
      ],
      [
        "p",
        "tic"
      ],
      [
        "p",
        "ra"
      ],
      [
        "p",
        "thes"
      ],
      [
        "p",
        "ational"
      ],
      [
        "p",
        "ie"
      ],
      [
        "r",
        "al"
      ],
      [
        "r",
        "us"
      ],
      [
        "r",
        "ical"
      ],
      [
        "r",
        "ick"
      ],
      [
        "s",
        "th"
      ],
      [
        "s",
        "on"
      ],
      [
        "s",
        "and"
      ],
      [
        "s",
        "to"
      ],
      [
        "s",
        "co"
      ],
      [
        "s",
        "ick"
      ],
      [
        "s",
        "sible"
      ],
      [
        "s",
        "som"
      ],
      [
        "s",
        "cend"
      ],
      [
        "t",
        "t"
      ],
      [
        "t",
        "w"
      ],
      [
        "t",
        "al"
      ],
      [
        "t",
        "or"
      ],
      [
        "t",
        "as"
      ],
      [
        "t",
        "le"
      ],
      [
        "t",
        "ch"
      ],
      [
        "t",
        "ri"
      ],
      [
        "t",
        "te"
      ],
      [
        "t",
        "ant"
      ],
      [
        "t",
        "ors"
      ],
      [
        "t",
        "est"
      ],
      [
        "t",
        "arge"
      ],
      [
        "t",
        "ail"
      ],
      [
        "t",
        "ext"
      ],
      [
        "t",
        "ute"
      ],
      [
        "t",
        "aanalysis"
      ],
      [
        "u",
        "k"
      ],
      [
        "u",
        "p"
      ],
      [
        "u",
        "es"
      ],
      [
        "u",
        "ly"
      ],
      [
        "u",
        "ce"
      ],
      [
        "u",
        "ra"
      ],
      [
        "u",
        "tive"
      ],
      [
        "u",
        "able"
      ],
      [
        "u",
        "mas"
      ],
      [
        "u",
        "enced"
      ],
      [
        "v",
        "in"
      ],
      [
        "v",
        "it"
      ],
      [
        "v",
        "ors"
      ],
      [
        "w",
        "at"
      ],
      [
        "w",
        "ing"
      ],
      [
        "w",
        "ide"
      ],
      [
        "w",
        "om"
      ],
      [
        "w",
        "ish"
      ],
      [
        "y",
        "er"
      ],
      [
        "y",
        "or"
      ],
      [
        "y",
        "le"
      ],
      [
        "y",
        "ment"
      ],
      [
        "y",
        "als"
      ],
      [
        "th",
        "while"
      ],
      [
        "th",
        "ings"
      ],
      [
        "in",
        "al"
      ],
      [
        "in",
        "ed"
      ],
      [
        "in",
        "ing"
      ],
      [
        "in",
        "fin"
      ],
      [
        "in",
        "ct"
      ],
      [
        "in",
        "ally"
      ],
      [
        "in",
        "tention"
      ],
      [
        "in",
        "ning"
      ],
      [
        "in",
        "attention"
      ],
      [
        "in",
        "fl"
      ],
      [
        "in",
        "separ"
      ],
      [
        "in",
        "jur"
      ],
      [
        "in",
        "tended"
      ],
      [
        "in",
        "lv"
      ],
      [
        "er",
        "al"
      ],
      [
        "er",
        "ed"
      ],
      [
        "er",
        "ing"
      ],
      [
        "er",
        "ne"
      ],
      [
        "er",
        "ic"
      ],
      [
        "er",
        "ving"
      ],
      [
        "er",
        "ced"
      ],
      [
        "er",
        "ials"
      ],
      [
        "er",
        "wat"
      ],
      [
        "ti",
        "al"
      ],
      [
        "ti",
        "ed"
      ],
      [
        "ti",
        "social"
      ],
      [
        "ti",
        "ves"
      ],
      [
        "ti",
        "gma"
      ],
      [
        "ti",
        "vation"
      ],
      [
        "ti",
        "rical"
      ],
      [
        "en",
        "z"
      ],
      [
        "en",
        "ed"
      ],
      [
        "en",
        "ing"
      ],
      [
        "en",
        "able"
      ],
      [
        "en",
        "jo"
      ],
      [
        "en",
        "et"
      ],
      [
        "en",
        "force"
      ],
      [
        "en",
        "cing"
      ],
      [
        "en",
        "cies"
      ],
      [
        "en",
        "cy"
      ],
      [
        "en",
        "han"
      ],
      [
        "on",
        "es"
      ],
      [
        "on",
        "able"
      ],
      [
        "on",
        "ies"
      ],
      [
        "an",
        "e"
      ],
      [
        "an",
        "ing"
      ],
      [
        "an",
        "ies"
      ],
      [
        "an",
        "tit"
      ],
      [
        "an",
        "nual"
      ],
      [
        "an",
        "tisocial"
      ],
      [
        "di",
        "e"
      ],
      [
        "di",
        "t"
      ],
      [
        "di",
        "re"
      ],
      [
        "di",
        "se"
      ],
      [
        "di",
        "ct"
      ],
      [
        "di",
        "ction"
      ],
      [
        "di",
        "cho"
      ],
      [
        "di",
        "cted"
      ],
      [
        "al",
        "li"
      ],
      [
        "al",
        "iz"
      ],
      [
        "al",
        "ign"
      ],
      [
        "or",
        "er"
      ],
      [
        "or",
        "ity"
      ],
      [
        "or",
        "se"
      ],
      [
        "or",
        "ig"
      ],
      [
        "or",
        "ating"
      ],
      [
        "or",
        "ities"
      ],
      [
        "or",
        "ically"
      ],
      [
        "or",
        "ships"
      ],
      [
        "es",
        "te"
      ],
      [
        "es",
        "ign"
      ],
      [
        "ro",
        "me"
      ],
      [
        "ro",
        "ten"
      ],
      [
        "ro",
        "ke"
      ],
      [
        "ro",
        "les"
      ],
      [
        "ro",
        "duc"
      ],
      [
        "ro",
        "bis"
      ],
      [
        "ed",
        "ges"
      ],
      [
        "ed",
        "back"
      ],
      [
        "at",
        "er"
      ],
      [
        "at",
        "ch"
      ],
      [
        "at",
        "tain"
      ],
      [
        "at",
        "ure"
      ],
      [
        "at",
        "tit"
      ],
      [
        "and",
        "ard"
      ],
      [
        "ing",
        "ent"
      ],
      [
        "ing",
        "ly"
      ],
      [
        "ar",
        "ac"
      ],
      [
        "ne",
        "l"
      ],
      [
        "ne",
        "ts"
      ],
      [
        "ne",
        "olog"
      ],
      [
        "it",
        "er"
      ],
      [
        "it",
        "ing"
      ],
      [
        "it",
        "ch"
      ],
      [
        "it",
        "ud"
      ],
      [
        "it",
        "ate"
      ],
      [
        "it",
        "te"
      ],
      [
        "it",
        "self"
      ],
      [
        "it",
        "based"
      ],
      [
        "it",
        "ative"
      ],
      [
        "ent",
        "ually"
      ],
      [
        "as",
        "an"
      ],
      [
        "as",
        "as"
      ],
      [
        "as",
        "pec"
      ],
      [
        "as",
        "ures"
      ],
      [
        "as",
        "ible"
      ],
      [
        "as",
        "onable"
      ],
      [
        "tion",
        "ing"
      ],
      [
        "tion",
        "ary"
      ],
      [
        "div",
        "erg"
      ],
      [
        "neuro",
        "le"
      ],
      [
        "neuro",
        "que"
      ],
      [
        "neuro",
        "cognition"
      ],
      [
        "neuro",
        "type"
      ],
      [
        "neuro",
        "types"
      ],
      [
        "neuro",
        "inclusive"
      ],
      [
        "neuro",
        "biological"
      ],
      [
        "ers",
        "e"
      ],
      [
        "of",
        "ol"
      ],
      [
        "to",
        "ure"
      ],
      [
        "to",
        "od"
      ],
      [
        "to",
        "my"
      ],
      [
        "le",
        "psy"
      ],
      [
        "le",
        "br"
      ],
      [
        "le",
        "ft"
      ],
      [
        "le",
        "itch"
      ],
      [
        "re",
        "al"
      ],
      [
        "re",
        "ac"
      ],
      [
        "re",
        "ci"
      ],
      [
        "re",
        "con"
      ],
      [
        "re",
        "ly"
      ],
      [
        "re",
        "li"
      ],
      [
        "re",
        "pl"
      ],
      [
        "re",
        "am"
      ],
      [
        "re",
        "ct"
      ],
      [
        "re",
        "qu"
      ],
      [
        "re",
        "cogn"
      ],
      [
        "re",
        "consider"
      ],
      [
        "re",
        "fra"
      ],
      [
        "re",
        "cei"
      ],
      [
        "re",
        "cord"
      ],
      [
        "re",
        "fle"
      ],
      [
        "re",
        "conceptual"
      ],
      [
        "re",
        "fers"
      ],
      [
        "re",
        "asonable"
      ],
      [
        "st",
        "ent"
      ],
      [
        "st",
        "ated"
      ],
      [
        "st",
        "ate"
      ],
      [
        "st",
        "ri"
      ],
      [
        "st",
        "ates"
      ],
      [
        "st",
        "ere"
      ],
      [
        "st",
        "eps"
      ],
      [
        "st",
        "yle"
      ],
      [
        "st",
        "ering"
      ],
      [
        "st",
        "roke"
      ],
      [
        "st",
        "andard"
      ],
      [
        "st",
        "ream"
      ],
      [
        "ve",
        "comp"
      ],
      [
        "ch",
        "ap"
      ],
      [
        "ch",
        "arac"
      ],
      [
        "au",
        "matic"
      ],
      [
        "au",
        "treat"
      ],
      [
        "so",
        "lve"
      ],
      [
        "ic",
        "id"
      ],
      [
        "ic",
        "ts"
      ],
      [
        "ic",
        "ate"
      ],
      [
        "for",
        "d"
      ],
      [
        "for",
        "ts"
      ],
      [
        "for",
        "ced"
      ],
      [
        "me",
        "l"
      ],
      [
        "me",
        "tho"
      ],
      [
        "me",
        "taanalysis"
      ],
      [
        "me",
        "aning"
      ],
      [
        "me",
        "asures"
      ],
      [
        "is",
        "tive"
      ],
      [
        "tic",
        "e"
      ],
      [
        "tic",
        "s"
      ],
      [
        "be",
        "ll"
      ],
      [
        "be",
        "long"
      ],
      [
        "ad",
        "s"
      ],
      [
        "ad",
        "equ"
      ],
      [
        "ac",
        "ed"
      ],
      [
        "ac",
        "ing"
      ],
      [
        "ac",
        "tion"
      ],
      [
        "ac",
        "ts"
      ],
      [
        "ac",
        "qu"
      ],
      [
        "ac",
        "cess"
      ],
      [
        "se",
        "con"
      ],
      [
        "se",
        "em"
      ],
      [
        "se",
        "ems"
      ],
      [
        "su",
        "re"
      ],
      [
        "su",
        "ff"
      ],
      [
        "su",
        "bj"
      ],
      [
        "su",
        "icid"
      ],
      [
        "ci",
        "l"
      ],
      [
        "ci",
        "le"
      ],
      [
        "con",
        "cent"
      ],
      [
        "con",
        "fl"
      ],
      [
        "con",
        "fid"
      ],
      [
        "id",
        "ge"
      ],
      [
        "id",
        "entic"
      ],
      [
        "mo",
        "od"
      ],
      [
        "mo",
        "tor"
      ],
      [
        "mo",
        "tivation"
      ],
      [
        "co",
        "oc"
      ],
      [
        "co",
        "ur"
      ],
      [
        "co",
        "vid"
      ],
      [
        "co",
        "stan"
      ],
      [
        "co",
        "ined"
      ],
      [
        "co",
        "erced"
      ],
      [
        "ment",
        "orships"
      ],
      [
        "op",
        "tions"
      ],
      [
        "op",
        "ponents"
      ],
      [
        "op",
        "hren"
      ],
      [
        "neurodiverg",
        "encies"
      ],
      [
        "ter",
        "ns"
      ],
      [
        "ter",
        "istic"
      ],
      [
        "il",
        "ing"
      ],
      [
        "il",
        "ies"
      ],
      [
        "il",
        "itate"
      ],
      [
        "ab",
        "a"
      ],
      [
        "ab",
        "ly"
      ],
      [
        "autistic",
        "led"
      ],
      [
        "de",
        "vi"
      ],
      [
        "de",
        "cre"
      ],
      [
        "de",
        "te"
      ],
      [
        "de",
        "cis"
      ],
      [
        "de",
        "bates"
      ],
      [
        "de",
        "gree"
      ],
      [
        "de",
        "tail"
      ],
      [
        "pp",
        "ort"
      ],
      [
        "neurodiversity",
        "based"
      ],
      [
        "wh",
        "el"
      ],
      [
        "wh",
        "ether"
      ],
      [
        "ce",
        "lebr"
      ],
      [
        "neurodivergent",
        "neurodivergence"
      ],
      [
        "mp",
        "le"
      ],
      [
        "soci",
        "olog"
      ],
      [
        "us",
        "es"
      ],
      [
        "us",
        "ion"
      ],
      [
        "us",
        "enet"
      ],
      [
        "dis",
        "inter"
      ],
      [
        "dis",
        "cre"
      ],
      [
        "no",
        "men"
      ],
      [
        "no",
        "body"
      ],
      [
        "no",
        "mia"
      ],
      [
        "ud",
        "l"
      ],
      [
        "ud",
        "es"
      ],
      [
        "with",
        "out"
      ],
      [
        "res",
        "tr"
      ],
      [
        "res",
        "pect"
      ],
      [
        "peop",
        "les"
      ],
      [
        "ort",
        "com"
      ],
      [
        "ra",
        "tive"
      ],
      [
        "ra",
        "yals"
      ],
      [
        "ra",
        "dict"
      ],
      [
        "ra",
        "pport"
      ],
      [
        "si",
        "fting"
      ],
      [
        "si",
        "tioning"
      ],
      [
        "si",
        "vecomp"
      ],
      [
        "si",
        "mple"
      ],
      [
        "social",
        "ized"
      ],
      [
        "social",
        "ization"
      ],
      [
        "vi",
        "vors"
      ],
      [
        "vi",
        "aliz"
      ],
      [
        "inter",
        "ag"
      ],
      [
        "inter",
        "person"
      ],
      [
        "inter",
        "net"
      ],
      [
        "inter",
        "conne"
      ],
      [
        "inter",
        "nets"
      ],
      [
        "li",
        "er"
      ],
      [
        "li",
        "es"
      ],
      [
        "li",
        "ve"
      ],
      [
        "li",
        "sts"
      ],
      [
        "li",
        "ber"
      ],
      [
        "li",
        "orating"
      ],
      [
        "li",
        "tics"
      ],
      [
        "oc",
        "cu"
      ],
      [
        "ces",
        "sing"
      ],
      [
        "ces",
        "ca"
      ],
      [
        "ex",
        "emp"
      ],
      [
        "ex",
        "po"
      ],
      [
        "ex",
        "ec"
      ],
      [
        "ex",
        "pect"
      ],
      [
        "ex",
        "tern"
      ],
      [
        "ex",
        "tended"
      ],
      [
        "some",
        "where"
      ],
      [
        "some",
        "what"
      ],
      [
        "ear",
        "lier"
      ],
      [
        "lo",
        "se"
      ],
      [
        "form",
        "ed"
      ],
      [
        "form",
        "at"
      ],
      [
        "form",
        "ly"
      ],
      [
        "und",
        "er"
      ],
      [
        "ir",
        "ed"
      ],
      [
        "ir",
        "cs"
      ],
      [
        "ma",
        "king"
      ],
      [
        "ma",
        "kes"
      ],
      [
        "ma",
        "iling"
      ],
      [
        "ut",
        "a"
      ],
      [
        "adv",
        "erse"
      ],
      [
        "supp",
        "ress"
      ],
      [
        "supp",
        "ressing"
      ],
      [
        "supp",
        "osed"
      ],
      [
        "he",
        "igh"
      ],
      [
        "ur",
        "nalist"
      ],
      [
        "wor",
        "d"
      ],
      [
        "wor",
        "ds"
      ],
      [
        "wor",
        "thwhile"
      ],
      [
        "cl",
        "aim"
      ],
      [
        "cl",
        "ature"
      ],
      [
        "pro",
        "ven"
      ],
      [
        "pro",
        "ced"
      ],
      [
        "pro",
        "vide"
      ],
      [
        "pro",
        "tes"
      ],
      [
        "pro",
        "ject"
      ],
      [
        "pro",
        "test"
      ],
      [
        "pro",
        "cessing"
      ],
      [
        "support",
        "ing"
      ],
      [
        "app",
        "ly"
      ],
      [
        "app",
        "rais"
      ],
      [
        "app",
        "lying"
      ],
      [
        "app",
        "lication"
      ],
      [
        "app",
        "oin"
      ],
      [
        "app",
        "reci"
      ],
      [
        "eng",
        "age"
      ],
      [
        "eng",
        "aging"
      ],
      [
        "eng",
        "land"
      ],
      [
        "all",
        "istic"
      ],
      [
        "who",
        "s"
      ],
      [
        "who",
        "se"
      ],
      [
        "per",
        "cept"
      ],
      [
        "per",
        "ceived"
      ],
      [
        "ts",
        "on"
      ],
      [
        "ate",
        "ly"
      ],
      [
        "man",
        "te"
      ],
      [
        "man",
        "aging"
      ],
      [
        "man",
        "ner"
      ],
      [
        "sh",
        "are"
      ],
      [
        "sh",
        "aring"
      ],
      [
        "sh",
        "ared"
      ],
      [
        "sh",
        "ortcom"
      ],
      [
        "ag",
        "ed"
      ],
      [
        "ag",
        "ues"
      ],
      [
        "ach",
        "ing"
      ],
      [
        "comm",
        "itte"
      ],
      [
        "par",
        "ation"
      ],
      [
        "par",
        "ts"
      ],
      [
        "ri",
        "bu"
      ],
      [
        "sel",
        "l"
      ],
      [
        "sel",
        "fin"
      ],
      [
        "pl",
        "us"
      ],
      [
        "pl",
        "ural"
      ],
      [
        "pers",
        "ist"
      ],
      [
        "we",
        "bsites"
      ],
      [
        "ord",
        "er"
      ],
      [
        "commun",
        "al"
      ],
      [
        "commun",
        "ities"
      ],
      [
        "commun",
        "icate"
      ],
      [
        "other",
        "apeutic"
      ],
      [
        "po",
        "se"
      ],
      [
        "po",
        "ten"
      ],
      [
        "po",
        "ses"
      ],
      [
        "po",
        "lar"
      ],
      [
        "po",
        "ssible"
      ],
      [
        "po",
        "orer"
      ],
      [
        "po",
        "litics"
      ],
      [
        "ten",
        "ed"
      ],
      [
        "educ",
        "ating"
      ],
      [
        "ke",
        "vin"
      ],
      [
        "str",
        "ict"
      ],
      [
        "medical",
        "deficit"
      ],
      [
        "medical",
        "izing"
      ],
      [
        "research",
        "er"
      ],
      [
        "ath",
        "olog"
      ],
      [
        "cre",
        "ation"
      ],
      [
        "cre",
        "ating"
      ],
      [
        "cre",
        "dit"
      ],
      [
        "do",
        "min"
      ],
      [
        "do",
        "main"
      ],
      [
        "do",
        "her"
      ],
      [
        "gro",
        "wn"
      ],
      [
        "more",
        "over"
      ],
      [
        "ess",
        "enti"
      ],
      [
        "view",
        "ing"
      ],
      [
        "fic",
        "ation"
      ],
      [
        "health",
        "y"
      ],
      [
        "person",
        "s"
      ],
      [
        "person",
        "environment"
      ],
      [
        "person",
        "nel"
      ],
      [
        "em",
        "br"
      ],
      [
        "high",
        "light"
      ],
      [
        "te",
        "am"
      ],
      [
        "te",
        "aching"
      ],
      [
        "rel",
        "ations"
      ],
      [
        "rel",
        "ative"
      ],
      [
        "rel",
        "la"
      ],
      [
        "cont",
        "ribut"
      ],
      [
        "cont",
        "ingent"
      ],
      [
        "cont",
        "radict"
      ],
      [
        "am",
        "bi"
      ],
      [
        "am",
        "eric"
      ],
      [
        "care",
        "ers"
      ],
      [
        "fo",
        "llow"
      ],
      [
        "fo",
        "stering"
      ],
      [
        "unders",
        "tood"
      ],
      [
        "education",
        "al"
      ],
      [
        "ct",
        "ual"
      ],
      [
        "ll",
        "ing"
      ],
      [
        "non",
        "academic"
      ],
      [
        "non",
        "bin"
      ],
      [
        "non",
        "harmful"
      ],
      [
        "thes",
        "is"
      ],
      [
        "develop",
        "ers"
      ],
      [
        "develop",
        "ments"
      ],
      [
        "cau",
        "ses"
      ],
      [
        "sti",
        "gm"
      ],
      [
        "ong",
        "oing"
      ],
      [
        "challeng",
        "ing"
      ],
      [
        "ction",
        "al"
      ],
      [
        "imp",
        "act"
      ],
      [
        "imp",
        "air"
      ],
      [
        "imp",
        "lic"
      ],
      [
        "imp",
        "ulsi"
      ],
      [
        "imp",
        "acts"
      ],
      [
        "imp",
        "lies"
      ],
      [
        "pre",
        "val"
      ],
      [
        "pre",
        "conceived"
      ],
      [
        "pre",
        "limin"
      ],
      [
        "pre",
        "dicted"
      ],
      [
        "pre",
        "paration"
      ],
      [
        "pres",
        "ents"
      ],
      [
        "pres",
        "erving"
      ],
      [
        "qu",
        "antit"
      ],
      [
        "enti",
        "rely"
      ],
      [
        "one",
        "er"
      ],
      [
        "neurotypical",
        "s"
      ],
      [
        "neurotypical",
        "neuroconforming"
      ],
      [
        "able",
        "ism"
      ],
      [
        "exper",
        "ts"
      ],
      [
        "hel",
        "ps"
      ],
      [
        "model",
        "s"
      ],
      [
        "cent",
        "ral"
      ],
      [
        "des",
        "tigma"
      ],
      [
        "sy",
        "nd"
      ],
      [
        "ide",
        "al"
      ],
      [
        "self",
        "view"
      ],
      [
        "self",
        "report"
      ],
      [
        "self",
        "identi"
      ],
      [
        "self",
        "advocate"
      ],
      [
        "self",
        "determin"
      ],
      [
        "self",
        "diagnosis"
      ],
      [
        "self",
        "este"
      ],
      [
        "help",
        "ed"
      ],
      [
        "help",
        "ful"
      ],
      [
        "ol",
        "ing"
      ],
      [
        "ol",
        "ar"
      ],
      [
        "tra",
        "ditions"
      ],
      [
        "tra",
        "ining"
      ],
      [
        "tra",
        "itbased"
      ],
      [
        "xi",
        "a"
      ],
      [
        "includ",
        "es"
      ],
      [
        "includ",
        "ed"
      ],
      [
        "argu",
        "ed"
      ],
      [
        "argu",
        "ably"
      ],
      [
        "dys",
        "function"
      ],
      [
        "dys",
        "gra"
      ],
      [
        "dys",
        "cal"
      ],
      [
        "dys",
        "pra"
      ],
      [
        "dys",
        "nomia"
      ],
      [
        "fe",
        "llow"
      ],
      [
        "fe",
        "edback"
      ],
      [
        "fe",
        "asible"
      ],
      [
        "om",
        "ically"
      ],
      [
        "port",
        "rayals"
      ],
      [
        "port",
        "mante"
      ],
      [
        "age",
        "ous"
      ],
      [
        "strength",
        "based"
      ],
      [
        "jo",
        "in"
      ],
      [
        "jo",
        "urnalist"
      ],
      [
        "lin",
        "ess"
      ],
      [
        "lin",
        "ks"
      ],
      [
        "mil",
        "ity"
      ],
      [
        "over",
        "all"
      ],
      [
        "over",
        "whel"
      ],
      [
        "sing",
        "ers"
      ],
      [
        "use",
        "ful"
      ],
      [
        "incre",
        "ased"
      ],
      [
        "end",
        "orse"
      ],
      [
        "ard",
        "s"
      ],
      [
        "icul",
        "um"
      ],
      [
        "addition",
        "al"
      ],
      [
        "function",
        "al"
      ],
      [
        "publ",
        "ication"
      ],
      [
        "bo",
        "ards"
      ],
      [
        "ec",
        "tive"
      ],
      [
        "ec",
        "ted"
      ],
      [
        "foc",
        "al"
      ],
      [
        "ge",
        "ts"
      ],
      [
        "go",
        "al"
      ],
      [
        "go",
        "od"
      ],
      [
        "ion",
        "s"
      ],
      [
        "ion",
        "making"
      ],
      [
        "lack",
        "ing"
      ],
      [
        "tr",
        "uly"
      ],
      [
        "tr",
        "aumatic"
      ],
      [
        "tr",
        "action"
      ],
      [
        "tim",
        "ing"
      ],
      [
        "tim",
        "onies"
      ],
      [
        "ish",
        "ments"
      ],
      [
        "uni",
        "versity"
      ],
      [
        "uni",
        "formly"
      ],
      [
        "developmental",
        "ly"
      ],
      [
        "consider",
        "ation"
      ],
      [
        "consider",
        "able"
      ],
      [
        "deficit",
        "based"
      ],
      [
        "cur",
        "ing"
      ],
      [
        "cur",
        "ve"
      ],
      [
        "el",
        "d"
      ],
      [
        "el",
        "f"
      ],
      [
        "el",
        "der"
      ],
      [
        "gra",
        "tive"
      ],
      [
        "im",
        "al"
      ],
      [
        "min",
        "ority"
      ],
      [
        "min",
        "imal"
      ],
      [
        "righ",
        "t"
      ],
      [
        "sa",
        "fe"
      ],
      [
        "sa",
        "tirical"
      ],
      [
        "ser",
        "ves"
      ],
      [
        "ser",
        "ious"
      ],
      [
        "thin",
        "ks"
      ],
      [
        "attention",
        "deficit"
      ],
      [
        "ass",
        "istive"
      ],
      [
        "associ",
        "ate"
      ],
      [
        "reg",
        "ions"
      ],
      [
        "recent",
        "ly"
      ],
      [
        "cho",
        "ices"
      ],
      [
        "accept",
        "ing"
      ],
      [
        "mod",
        "al"
      ],
      [
        "neurodivergence",
        "informed"
      ],
      [
        "dep",
        "atholog"
      ],
      [
        "syst",
        "em"
      ],
      [
        "bio",
        "diversity"
      ],
      [
        "ef",
        "fort"
      ],
      [
        "ef",
        "forts"
      ],
      [
        "hu",
        "mility"
      ],
      [
        "ns",
        "on"
      ],
      [
        "nor",
        "m"
      ],
      [
        "ness",
        "based"
      ],
      [
        "att",
        "ribut"
      ],
      [
        "net",
        "working"
      ],
      [
        "review",
        "ed"
      ],
      [
        "conne",
        "ction"
      ],
      [
        "conne",
        "ctions"
      ],
      [
        "comp",
        "aring"
      ],
      [
        "comp",
        "ati"
      ],
      [
        "comp",
        "ared"
      ],
      [
        "comp",
        "lic"
      ],
      [
        "comp",
        "anies"
      ],
      [
        "ill",
        "nesses"
      ],
      [
        "ill",
        "nessbased"
      ],
      [
        "design",
        "ed"
      ],
      [
        "depend",
        "s"
      ],
      [
        "brain",
        "s"
      ],
      [
        "further",
        "more"
      ],
      [
        "accommod",
        "ates"
      ],
      [
        "accommod",
        "ating"
      ],
      [
        "aim",
        "ed"
      ],
      [
        "bi",
        "as"
      ],
      [
        "bi",
        "dire"
      ],
      [
        "bi",
        "polar"
      ],
      [
        "bi",
        "modal"
      ],
      [
        "cul",
        "ia"
      ],
      [
        "fl",
        "ash"
      ],
      [
        "har",
        "vey"
      ],
      [
        "lle",
        "ctual"
      ],
      [
        "ris",
        "e"
      ],
      [
        "ris",
        "k"
      ],
      [
        "sen",
        "se"
      ],
      [
        "indi",
        "rect"
      ],
      [
        "inte",
        "grative"
      ],
      [
        "inte",
        "llectual"
      ],
      [
        "insti",
        "tute"
      ],
      [
        "insti",
        "lling"
      ],
      [
        "allow",
        "ed"
      ],
      [
        "studi",
        "ed"
      ],
      [
        "add",
        "ress"
      ],
      [
        "adap",
        "t"
      ],
      [
        "separ",
        "ation"
      ],
      [
        "separ",
        "ated"
      ],
      [
        "separ",
        "ate"
      ],
      [
        "separ",
        "ating"
      ],
      [
        "conform",
        "ity"
      ],
      [
        "concer",
        "ned"
      ],
      [
        "defin",
        "e"
      ],
      [
        "defin",
        "ed"
      ],
      [
        "defin",
        "ing"
      ],
      [
        "expres",
        "s"
      ],
      [
        "expres",
        "sing"
      ],
      [
        "expres",
        "sed"
      ],
      [
        "emplo",
        "yment"
      ],
      [
        "emphas",
        "ize"
      ],
      [
        "stigma",
        "tiz"
      ],
      [
        "critic",
        "s"
      ],
      [
        "critic",
        "al"
      ],
      [
        "critic",
        "ized"
      ],
      [
        "effec",
        "tive"
      ],
      [
        "serv",
        "s"
      ],
      [
        "framework",
        "s"
      ],
      [
        "attemp",
        "ts"
      ],
      [
        "identify",
        "ing"
      ],
      [
        "workplace",
        "based"
      ],
      [
        "br",
        "ing"
      ],
      [
        "br",
        "idge"
      ],
      [
        "bro",
        "ken"
      ],
      [
        "bil",
        "ity"
      ],
      [
        "day",
        "s"
      ],
      [
        "fi",
        "x"
      ],
      [
        "fi",
        "eld"
      ],
      [
        "ju",
        "ne"
      ],
      [
        "mal",
        "e"
      ],
      [
        "ob",
        "tain"
      ],
      [
        "ob",
        "ses"
      ],
      [
        "ob",
        "struc"
      ],
      [
        "ob",
        "taining"
      ],
      [
        "od",
        "ds"
      ],
      [
        "olog",
        "ization"
      ],
      [
        "put",
        "s"
      ],
      [
        "put",
        "ting"
      ],
      [
        "pri",
        "orities"
      ],
      [
        "path",
        "ologization"
      ],
      [
        "red",
        "uce"
      ],
      [
        "red",
        "esign"
      ],
      [
        "int",
        "roduc"
      ],
      [
        "level",
        "s"
      ],
      [
        "remo",
        "te"
      ],
      [
        "remo",
        "ving"
      ],
      [
        "star",
        "t"
      ],
      [
        "colle",
        "ges"
      ],
      [
        "colle",
        "agues"
      ],
      [
        "respon",
        "se"
      ],
      [
        "respon",
        "sible"
      ],
      [
        "respon",
        "sibil"
      ],
      [
        "respon",
        "dence"
      ],
      [
        "combin",
        "ed"
      ],
      [
        "exist",
        "ing"
      ],
      [
        "exist",
        "enz"
      ],
      [
        "main",
        "taining"
      ],
      [
        "main",
        "stream"
      ],
      [
        "clin",
        "ics"
      ],
      [
        "play",
        "s"
      ],
      [
        "posi",
        "tion"
      ],
      [
        "posi",
        "tions"
      ],
      [
        "power",
        "point"
      ],
      [
        "treat",
        "s"
      ],
      [
        "assess",
        "ing"
      ],
      [
        "assess",
        "ment"
      ],
      [
        "assess",
        "ments"
      ],
      [
        "indic",
        "ates"
      ],
      [
        "organiz",
        "ing"
      ],
      [
        "multiple",
        "year"
      ],
      [
        "independent",
        "ly"
      ],
      [
        "determin",
        "e"
      ],
      [
        "ak",
        "ht"
      ],
      [
        "ame",
        "liorating"
      ],
      [
        "ail",
        "able"
      ],
      [
        "cor",
        "respondence"
      ],
      [
        "call",
        "s"
      ],
      [
        "call",
        "ed"
      ],
      [
        "dy",
        "nam"
      ],
      [
        "fund",
        "ing"
      ],
      [
        "fir",
        "sth"
      ],
      [
        "gu",
        "ide"
      ],
      [
        "gre",
        "ater"
      ],
      [
        "gain",
        "ed"
      ],
      [
        "gain",
        "ing"
      ],
      [
        "jud",
        "ge"
      ],
      [
        "long",
        "term"
      ],
      [
        "long",
        "itud"
      ],
      [
        "mis",
        "understanding"
      ],
      [
        "mis",
        "information"
      ],
      [
        "mis",
        "understood"
      ],
      [
        "ph",
        "ia"
      ],
      [
        "pat",
        "tern"
      ],
      [
        "pat",
        "rick"
      ],
      [
        "pat",
        "terns"
      ],
      [
        "pop",
        "ped"
      ],
      [
        "qual",
        "ity"
      ],
      [
        "qual",
        "itative"
      ],
      [
        "ran",
        "ge"
      ],
      [
        "ran",
        "som"
      ],
      [
        "sch",
        "olar"
      ],
      [
        "two",
        "year"
      ],
      [
        "val",
        "idi"
      ],
      [
        "val",
        "uable"
      ],
      [
        "inv",
        "iting"
      ],
      [
        "ari",
        "ly"
      ],
      [
        "ast",
        "existenz"
      ],
      [
        "lead",
        "ing"
      ],
      [
        "chan",
        "ges"
      ],
      [
        "auth",
        "ors"
      ],
      [
        "beg",
        "inning"
      ],
      [
        "acces",
        "sible"
      ],
      [
        "success",
        "ful"
      ],
      [
        "success",
        "fully"
      ],
      [
        "concep",
        "tion"
      ],
      [
        "concep",
        "tions"
      ],
      [
        "concep",
        "ts"
      ],
      [
        "confer",
        "ences"
      ],
      [
        "confer",
        "red"
      ],
      [
        "confer",
        "encing"
      ],
      [
        "coun",
        "cil"
      ],
      [
        "disc",
        "lose"
      ],
      [
        "wik",
        "tionary"
      ],
      [
        "advant",
        "age"
      ],
      [
        "provid",
        "ing"
      ],
      [
        "achie",
        "ved"
      ],
      [
        "part",
        "ly"
      ],
      [
        "partic",
        "ipan"
      ],
      [
        "perspec",
        "tives"
      ],
      [
        "spea",
        "king"
      ],
      [
        "spea",
        "ks"
      ],
      [
        "spea",
        "ker"
      ],
      [
        "acknowled",
        "ge"
      ],
      [
        "center",
        "ed"
      ],
      [
        "curr",
        "ing"
      ],
      [
        "curr",
        "ent"
      ],
      [
        "curr",
        "iculum"
      ],
      [
        "psych",
        "otherapeutic"
      ],
      [
        "psycho",
        "social"
      ],
      [
        "normal",
        "ize"
      ],
      [
        "normal",
        "ization"
      ],
      [
        "situ",
        "ates"
      ],
      [
        "connect",
        "ing"
      ],
      [
        "inclusion",
        "focused"
      ],
      [
        "integr",
        "al"
      ],
      [
        "institu",
        "tion"
      ],
      [
        "controvers",
        "ially"
      ],
      [
        "build",
        "s"
      ],
      [
        "build",
        "ing"
      ],
      [
        "broad",
        "er"
      ],
      [
        "broad",
        "ening"
      ],
      [
        "video",
        "conferencing"
      ],
      [
        "push",
        "ed"
      ],
      [
        "technolog",
        "ies"
      ],
      [
        "av",
        "oiding"
      ],
      [
        "av",
        "ailable"
      ],
      [
        "back",
        "ground"
      ],
      [
        "cu",
        "rative"
      ],
      [
        "cis",
        "gend"
      ],
      [
        "cted",
        "ness"
      ],
      [
        "fle",
        "tch"
      ],
      [
        "fall",
        "s"
      ],
      [
        "fam",
        "ily"
      ],
      [
        "fam",
        "ilies"
      ],
      [
        "fact",
        "ual"
      ],
      [
        "fact",
        "ors"
      ],
      [
        "hist",
        "ory"
      ],
      [
        "hist",
        "orically"
      ],
      [
        "jur",
        "ious"
      ],
      [
        "men",
        "tions"
      ],
      [
        "mat",
        "ter"
      ],
      [
        "mat",
        "erials"
      ],
      [
        "mad",
        "e"
      ],
      [
        "nd",
        "bis"
      ],
      [
        "pi",
        "oneer"
      ],
      [
        "pan",
        "cies"
      ],
      [
        "pand",
        "a"
      ],
      [
        "pand",
        "emic"
      ],
      [
        "pur",
        "sue"
      ],
      [
        "pur",
        "poses"
      ],
      [
        "pati",
        "ent"
      ],
      [
        "pati",
        "ents"
      ],
      [
        "reduc",
        "ing"
      ],
      [
        "reduc",
        "tion"
      ],
      [
        "scho",
        "ols"
      ],
      [
        "scho",
        "oling"
      ],
      [
        "tes",
        "timonies"
      ],
      [
        "umb",
        "rella"
      ],
      [
        "wr",
        "ong"
      ],
      [
        "wr",
        "iter"
      ],
      [
        "inst",
        "ance"
      ],
      [
        "inst",
        "ead"
      ],
      [
        "tiz",
        "e"
      ],
      [
        "dist",
        "inct"
      ],
      [
        "dist",
        "ribu"
      ],
      [
        "rober",
        "t"
      ],
      [
        "rober",
        "tson"
      ],
      [
        "aris",
        "e"
      ],
      [
        "aris",
        "es"
      ],
      [
        "necess",
        "ary"
      ],
      [
        "necess",
        "arily"
      ],
      [
        "toler",
        "ant"
      ],
      [
        "toler",
        "ance"
      ],
      [
        "toward",
        "s"
      ],
      [
        "read",
        "y"
      ],
      [
        "read",
        "ing"
      ],
      [
        "refer",
        "ences"
      ],
      [
        "refer",
        "red"
      ],
      [
        "stan",
        "ford"
      ],
      [
        "stress",
        "ed"
      ],
      [
        "sur",
        "vey"
      ],
      [
        "sur",
        "vivors"
      ],
      [
        "consi",
        "sts"
      ],
      [
        "consi",
        "stent"
      ],
      [
        "convers",
        "ation"
      ],
      [
        "convers",
        "ations"
      ],
      [
        "construc",
        "t"
      ],
      [
        "construc",
        "tions"
      ],
      [
        "mour",
        "n"
      ],
      [
        "mour",
        "ning"
      ],
      [
        "autistics",
        "org"
      ],
      [
        "white",
        "joh"
      ],
      [
        "disco",
        "ver"
      ],
      [
        "disco",
        "ura"
      ],
      [
        "disadvant",
        "aged"
      ],
      [
        "disadvant",
        "ageous"
      ],
      [
        "happ",
        "ened"
      ],
      [
        "ulsi",
        "ve"
      ],
      [
        "interview",
        "ing"
      ],
      [
        "interpre",
        "t"
      ],
      [
        "interpre",
        "ted"
      ],
      [
        "list",
        "servs"
      ],
      [
        "limit",
        "ed"
      ],
      [
        "limit",
        "ations"
      ],
      [
        "excl",
        "ude"
      ],
      [
        "excl",
        "usion"
      ],
      [
        "promo",
        "te"
      ],
      [
        "promo",
        "ting"
      ],
      [
        "common",
        "s"
      ],
      [
        "post",
        "ed"
      ],
      [
        "post",
        "secon"
      ],
      [
        "appe",
        "aring"
      ],
      [
        "appe",
        "ared"
      ],
      [
        "emerg",
        "ed"
      ],
      [
        "emerg",
        "ing"
      ],
      [
        "continu",
        "e"
      ],
      [
        "continu",
        "ed"
      ],
      [
        "improve",
        "ment"
      ],
      [
        "prefer",
        "ences"
      ],
      [
        "symb",
        "ol"
      ],
      [
        "symb",
        "ols"
      ],
      [
        "tradition",
        "al"
      ],
      [
        "tradition",
        "ally"
      ],
      [
        "though",
        "t"
      ],
      [
        "joh",
        "n"
      ],
      [
        "overloo",
        "k"
      ],
      [
        "overloo",
        "king"
      ],
      [
        "vari",
        "ation"
      ],
      [
        "vari",
        "ety"
      ],
      [
        "tran",
        "scend"
      ],
      [
        "tran",
        "sitioning"
      ],
      [
        "univers",
        "al"
      ],
      [
        "univers",
        "ities"
      ],
      [
        "prac",
        "tical"
      ],
      [
        "prac",
        "tice"
      ],
      [
        "specialist",
        "s"
      ],
      [
        "specialist",
        "erne"
      ],
      [
        "cultur",
        "al"
      ],
      [
        "cultur",
        "ally"
      ],
      [
        "establ",
        "ished"
      ],
      [
        "establ",
        "ishments"
      ],
      [
        "defini",
        "tion"
      ],
      [
        "defini",
        "tions"
      ],
      [
        "humanity",
        "s"
      ],
      [
        "analy",
        "sts"
      ],
      [
        "analy",
        "tical"
      ],
      [
        "question",
        "naire"
      ],
      [
        "label",
        "s"
      ],
      [
        "schiz",
        "oaff"
      ],
      [
        "schiz",
        "ophren"
      ],
      [
        "invol",
        "ve"
      ],
      [
        "invol",
        "ving"
      ],
      [
        "authentic",
        "ity"
      ],
      [
        "setting",
        "s"
      ],
      [
        "discussion",
        "s"
      ],
      [
        "wiki",
        "media"
      ],
      [
        "wiki",
        "versity"
      ],
      [
        "achieve",
        "ment"
      ],
      [
        "categor",
        "ies"
      ],
      [
        "categor",
        "ized"
      ],
      [
        "natural",
        "istic"
      ],
      [
        "pharmacological",
        "psychosocial"
      ],
      [
        "sinclair",
        "s"
      ],
      [
        "incorpor",
        "ates"
      ],
      [
        "incorpor",
        "ating"
      ],
      [
        "inherent",
        "ly"
      ],
      [
        "coordin",
        "ation"
      ],
      [
        "coordin",
        "ating"
      ],
      [
        "pervasive",
        "ly"
      ],
      [
        "psychiatr",
        "y"
      ],
      [
        "psychiatr",
        "ic"
      ],
      [
        "af",
        "ter"
      ],
      [
        "aro",
        "und"
      ],
      [
        "aver",
        "age"
      ],
      [
        "avers",
        "ive"
      ],
      [
        "ban",
        "k"
      ],
      [
        "bul",
        "lying"
      ],
      [
        "blo",
        "ssom"
      ],
      [
        "ball",
        "astexistenz"
      ],
      [
        "bag",
        "gs"
      ],
      [
        "bri",
        "ef"
      ],
      [
        "dw",
        "yer"
      ],
      [
        "den",
        "y"
      ],
      [
        "don",
        "t"
      ],
      [
        "dra",
        "wing"
      ],
      [
        "doc",
        "tors"
      ],
      [
        "dri",
        "ving"
      ],
      [
        "dub",
        "ious"
      ],
      [
        "ev",
        "entually"
      ],
      [
        "eth",
        "ical"
      ],
      [
        "ele",
        "ments"
      ],
      [
        "econ",
        "omically"
      ],
      [
        "epi",
        "lepsy"
      ],
      [
        "elimin",
        "ated"
      ],
      [
        "fal",
        "se"
      ],
      [
        "fed",
        "eral"
      ],
      [
        "fac",
        "ilitate"
      ],
      [
        "fig",
        "ure"
      ],
      [
        "fri",
        "th"
      ],
      [
        "flexi",
        "bility"
      ],
      [
        "fran",
        "cesca"
      ],
      [
        "ginn",
        "y"
      ],
      [
        "hin",
        "der"
      ],
      [
        "hers",
        "elf"
      ],
      [
        "hoc",
        "k"
      ],
      [
        "hol",
        "ds"
      ],
      [
        "jen",
        "nifer"
      ],
      [
        "jas",
        "wal"
      ],
      [
        "kin",
        "dness"
      ],
      [
        "kno",
        "wn"
      ],
      [
        "kassi",
        "ane"
      ],
      [
        "knowled",
        "ge"
      ],
      [
        "lit",
        "tle"
      ],
      [
        "lay",
        "ing"
      ],
      [
        "lone",
        "liness"
      ],
      [
        "mu",
        "ch"
      ],
      [
        "mid",
        "dle"
      ],
      [
        "mut",
        "ually"
      ],
      [
        "massi",
        "ve"
      ],
      [
        "mism",
        "atch"
      ],
      [
        "ny",
        "u"
      ],
      [
        "name",
        "ly"
      ],
      [
        "numb",
        "er"
      ],
      [
        "pen",
        "pal"
      ],
      [
        "pas",
        "sing"
      ],
      [
        "pthes",
        "hock"
      ],
      [
        "pie",
        "ce"
      ],
      [
        "rus",
        "sell"
      ],
      [
        "sand",
        "bank"
      ],
      [
        "sto",
        "ptheshock"
      ],
      [
        "sco",
        "tt"
      ],
      [
        "tw",
        "ofol"
      ],
      [
        "tal",
        "ents"
      ],
      [
        "tas",
        "k"
      ],
      [
        "tri",
        "vializ"
      ],
      [
        "tant",
        "amount"
      ],
      [
        "targe",
        "ted"
      ],
      [
        "text",
        "based"
      ],
      [
        "umas",
        "u"
      ],
      [
        "vit",
        "al"
      ],
      [
        "wide",
        "ly"
      ],
      [
        "wom",
        "en"
      ],
      [
        "yor",
        "k"
      ],
      [
        "infin",
        "ity"
      ],
      [
        "infl",
        "uenced"
      ],
      [
        "insepar",
        "able"
      ],
      [
        "injur",
        "y"
      ],
      [
        "erwat",
        "son"
      ],
      [
        "enjo",
        "y"
      ],
      [
        "enhan",
        "cing"
      ],
      [
        "dise",
        "ase"
      ],
      [
        "diction",
        "ary"
      ],
      [
        "dicho",
        "tomy"
      ],
      [
        "alli",
        "ance"
      ],
      [
        "orig",
        "inally"
      ],
      [
        "roten",
        "berg"
      ],
      [
        "robis",
        "on"
      ],
      [
        "attain",
        "able"
      ],
      [
        "attit",
        "udes"
      ],
      [
        "neolog",
        "ism"
      ],
      [
        "asas",
        "umasu"
      ],
      [
        "aspec",
        "ts"
      ],
      [
        "diverg",
        "es"
      ],
      [
        "neurole",
        "ptic"
      ],
      [
        "neuroque",
        "er"
      ],
      [
        "toure",
        "tte"
      ],
      [
        "leitch",
        "s"
      ],
      [
        "reac",
        "tions"
      ],
      [
        "recon",
        "cile"
      ],
      [
        "reli",
        "ability"
      ],
      [
        "repl",
        "acing"
      ],
      [
        "requ",
        "ired"
      ],
      [
        "recogn",
        "ize"
      ],
      [
        "refra",
        "mes"
      ],
      [
        "recei",
        "ving"
      ],
      [
        "record",
        "ed"
      ],
      [
        "refle",
        "ct"
      ],
      [
        "reconceptual",
        "ize"
      ],
      [
        "stri",
        "ve"
      ],
      [
        "stere",
        "otypes"
      ],
      [
        "chap",
        "man"
      ],
      [
        "charac",
        "teristic"
      ],
      [
        "metho",
        "ds"
      ],
      [
        "belong",
        "s"
      ],
      [
        "adequ",
        "ately"
      ],
      [
        "acqu",
        "ire"
      ],
      [
        "seem",
        "ingly"
      ],
      [
        "suff",
        "ered"
      ],
      [
        "subj",
        "ected"
      ],
      [
        "suicid",
        "ality"
      ],
      [
        "concent",
        "rate"
      ],
      [
        "confl",
        "icts"
      ],
      [
        "confid",
        "ence"
      ],
      [
        "identic",
        "al"
      ],
      [
        "cooc",
        "curring"
      ],
      [
        "cour",
        "se"
      ],
      [
        "costan",
        "di"
      ],
      [
        "devi",
        "ations"
      ],
      [
        "decre",
        "ase"
      ],
      [
        "dete",
        "ction"
      ],
      [
        "decis",
        "ionmaking"
      ],
      [
        "celebr",
        "ating"
      ],
      [
        "sociolog",
        "y"
      ],
      [
        "disinter",
        "est"
      ],
      [
        "discre",
        "pancies"
      ],
      [
        "nomen",
        "clature"
      ],
      [
        "restr",
        "ict"
      ],
      [
        "respect",
        "ing"
      ],
      [
        "sivecomp",
        "ulsive"
      ],
      [
        "interag",
        "ency"
      ],
      [
        "interperson",
        "al"
      ],
      [
        "interconne",
        "ctedness"
      ],
      [
        "liber",
        "ating"
      ],
      [
        "occu",
        "pational"
      ],
      [
        "exemp",
        "t"
      ],
      [
        "expo",
        "sure"
      ],
      [
        "exec",
        "utive"
      ],
      [
        "expect",
        "ations"
      ],
      [
        "extern",
        "al"
      ],
      [
        "heigh",
        "tened"
      ],
      [
        "claim",
        "ing"
      ],
      [
        "proced",
        "ures"
      ],
      [
        "protes",
        "ts"
      ],
      [
        "apprais",
        "al"
      ],
      [
        "appoin",
        "ted"
      ],
      [
        "appreci",
        "ating"
      ],
      [
        "percept",
        "ual"
      ],
      [
        "shortcom",
        "ings"
      ],
      [
        "committe",
        "e"
      ],
      [
        "selfin",
        "jurious"
      ],
      [
        "plural",
        "ism"
      ],
      [
        "persist",
        "ent"
      ],
      [
        "poten",
        "tial"
      ],
      [
        "strict",
        "ly"
      ],
      [
        "domin",
        "ant"
      ],
      [
        "domain",
        "s"
      ],
      [
        "doher",
        "ty"
      ],
      [
        "essenti",
        "al"
      ],
      [
        "embr",
        "aced"
      ],
      [
        "contribut",
        "e"
      ],
      [
        "contradict",
        "ory"
      ],
      [
        "ambi",
        "tions"
      ],
      [
        "americ",
        "an"
      ],
      [
        "nonbin",
        "ary"
      ],
      [
        "stigm",
        "as"
      ],
      [
        "implic",
        "ations"
      ],
      [
        "impulsi",
        "vity"
      ],
      [
        "preval",
        "ent"
      ],
      [
        "prelimin",
        "ary"
      ],
      [
        "quantit",
        "ative"
      ],
      [
        "destigma",
        "tize"
      ],
      [
        "synd",
        "rome"
      ],
      [
        "selfidenti",
        "fication"
      ],
      [
        "selfdetermin",
        "ation"
      ],
      [
        "selfeste",
        "em"
      ],
      [
        "dysgra",
        "phia"
      ],
      [
        "dyscal",
        "culia"
      ],
      [
        "dyspra",
        "xia"
      ],
      [
        "portmante",
        "au"
      ],
      [
        "overwhel",
        "med"
      ],
      [
        "endorse",
        "ments"
      ],
      [
        "depatholog",
        "ized"
      ],
      [
        "attribut",
        "ing"
      ],
      [
        "compati",
        "ble"
      ],
      [
        "complic",
        "ate"
      ],
      [
        "bidire",
        "ctional"
      ],
      [
        "flash",
        "blogs"
      ],
      [
        "indirect",
        "ly"
      ],
      [
        "stigmatiz",
        "ing"
      ],
      [
        "obses",
        "sivecompulsive"
      ],
      [
        "obstruc",
        "tive"
      ],
      [
        "redesign",
        "ed"
      ],
      [
        "introduc",
        "ed"
      ],
      [
        "responsibil",
        "ities"
      ],
      [
        "akht",
        "ar"
      ],
      [
        "dynam",
        "ics"
      ],
      [
        "firsth",
        "and"
      ],
      [
        "longitud",
        "inal"
      ],
      [
        "validi",
        "ty"
      ],
      [
        "participan",
        "ts"
      ],
      [
        "background",
        "s"
      ],
      [
        "cisgend",
        "er"
      ],
      [
        "fletch",
        "erwatson"
      ],
      [
        "distribu",
        "tion"
      ],
      [
        "whitejoh",
        "nson"
      ],
      [
        "discoura",
        "ged"
      ],
      [
        "postsecon",
        "dary"
      ],
      [
        "transcend",
        "s"
      ],
      [
        "schizoaff",
        "ective"
      ],
      [
        "schizophren",
        "ia"
      ],
      [
        "twofol",
        "d"
      ],
      [
        "trivializ",
        "es"
      ],
      [
        "characteristic",
        "s"
      ]
    ]
  }
}